<unk>	0
<EOS>	0
▁	-2.06213
s	-3.26126
,	-3.44001
.	-3.57388
▁the	-3.74576
▁to	-4.15252
▁a	-4.39544
▁of	-4.39549
▁and	-4.42863
▁is	-4.48618
▁I	-4.62639
▁that	-4.62979
▁in	-4.67707
e	-4.71988
ing	-4.72485
▁you	-4.79685
d	-4.8028
ed	-4.92315
y	-4.97006
n	-5.03498
t	-5.06969
▁it	-5.08045
▁are	-5.2948
▁we	-5.29597
▁not	-5.32506
a	-5.38203
al	-5.43286
▁for	-5.43861
er	-5.44769
▁have	-5.47048
o	-5.51221
▁this	-5.51856
g	-5.54721
▁be	-5.57118
p	-5.58562
re	-5.59106
ly	-5.63648
i	-5.66306
or	-5.68805
▁on	-5.71138
▁do	-5.7374
▁with	-5.75703
st	-5.77504
ar	-5.77614
le	-5.78295
c	-5.79819
▁was	-5.79865
▁And	-5.8034
r	-5.81055
▁So	-5.8556
in	-5.86804
▁so	-5.91244
u	-5.9429
▁A	-5.95487
w	-5.97573
it	-6.00023
se	-6.00743
▁can	-6.02228
▁re	-6.0555
▁know	-6.07358
▁as	-6.0779
l	-6.08672
?	-6.08786
b	-6.09174
an	-6.10537
▁like	-6.10642
m	-6.11137
th	-6.11437
k	-6.11679
li	-6.12657
▁The	-6.13143
ri	-6.13294
ro	-6.13465
on	-6.14014
ch	-6.14321
es	-6.15333
▁S	-6.15551
▁what	-6.1638
▁f	-6.16781
▁one	-6.17508
▁at	-6.1855
▁will	-6.20759
▁they	-6.21567
▁de	-6.2387
en	-6.24952
ce	-6.26833
▁there	-6.29596
ur	-6.30026
▁but	-6.30057
▁just	-6.30426
ic	-6.31024
▁me	-6.32089
'	-6.32112
ment	-6.34841
h	-6.35368
ation	-6.35411
ent	-6.35715
▁he	-6.36016
▁all	-6.36525
▁or	-6.36554
te	-6.3726
ra	-6.38386
▁b	-6.38545
lo	-6.38997
▁going	-6.40277
▁B	-6.41888
▁about	-6.4197
▁from	-6.42218
ter	-6.46459
f	-6.46596
vi	-6.47092
▁am	-6.47924
▁your	-6.48321
▁if	-6.48487
ck	-6.4949
ho	-6.50901
▁C	-6.51687
▁con	-6.52146
▁by	-6.52768
il	-6.53046
et	-6.53776
ve	-6.55794
ate	-6.58324
▁P	-6.58732
▁an	-6.58756
ad	-6.60001
x	-6.6034
▁see	-6.62067
▁would	-6.62221
▁It	-6.62291
im	-6.62318
▁my	-6.62689
▁co	-6.64174
▁think	-6.64328
▁c	-6.64533
▁out	-6.64542
▁up	-6.64578
▁go	-6.64598
▁us	-6.66205
▁p	-6.66401
at	-6.66421
ll	-6.67688
ma	-6.68518
me	-6.6856
▁some	-6.68575
ne	-6.68789
▁two	-6.69703
ion	-6.70856
ci	-6.72122
▁here	-6.73177
▁which	-6.73235
la	-6.74566
▁We	-6.7463
▁want	-6.76181
el	-6.77535
un	-6.7763
▁You	-6.77811
▁has	-6.7806
ver	-6.78301
▁get	-6.78751
▁right	-6.78891
▁our	-6.79141
▁E	-6.80374
▁because	-6.81623
▁time	-6.81965
▁T	-6.81976
ge	-6.8325
ol	-6.86035
▁W	-6.86061
▁people	-6.8688
age	-6.87294
▁say	-6.87787
▁more	-6.8809
▁ex	-6.88104
ity	-6.88182
us	-6.88612
▁F	-6.89106
op	-6.89549
▁pro	-6.91124
▁when	-6.91194
ers	-6.92156
ta	-6.92256
as	-6.92266
hi	-6.92751
nd	-6.93979
ct	-6.94147
ha	-6.9449
▁then	-6.94785
▁no	-6.95405
▁really	-6.95539
de	-6.95553
▁O	-6.95592
ist	-6.95924
▁work	-6.96151
▁also	-6.96294
▁had	-6.97172
▁were	-6.97386
am	-6.98579
able	-6.98745
pa	-6.98793
▁how	-6.98889
z	-6.99278
ul	-6.99415
▁other	-6.99604
ti	-6.99848
tra	-6.99997
mi	-7.00311
▁very	-7.00752
▁M	-7.02293
per	-7.02857
▁them	-7.03325
ir	-7.03501
ten	-7.04391
▁who	-7.04673
bo	-7.04932
▁G	-7.05124
▁In	-7.05771
end	-7.05923
ies	-7.06735
▁But	-7.07029
ive	-7.08081
▁their	-7.08114
▁these	-7.08389
po	-7.09222
ry	-7.09253
▁now	-7.10747
▁He	-7.11267
▁di	-7.12211
▁his	-7.1248
ca	-7.12633
▁been	-7.12875
om	-7.13394
▁need	-7.14008
qu	-7.14087
▁mo	-7.14461
v	-7.14574
ba	-7.14593
ance	-7.1503
um	-7.15179
ke	-7.15511
one	-7.16769
ng	-7.18512
▁twenty	-7.18691
▁into	-7.19374
fa	-7.19631
di	-7.21318
▁That	-7.21381
▁make	-7.21951
▁uhm	-7.23261
▁where	-7.23288
sh	-7.23914
▁did	-7.24509
ant	-7.24688
is	-7.2506
▁over	-7.25593
▁three	-7.26097
S	-7.26298
▁N	-7.26703
▁any	-7.26885
ld	-7.2708
pe	-7.27549
▁way	-7.27832
D	-7.28519
▁hundred	-7.30546
▁look	-7.31567
ence	-7.32361
▁back	-7.32893
ear	-7.33394
▁This	-7.33449
▁part	-7.33807
▁mean	-7.34101
ally	-7.34462
mp	-7.34493
ous	-7.34782
▁comp	-7.3481
▁those	-7.35015
min	-7.35088
ut	-7.35221
mo	-7.35346
▁got	-7.35643
fi	-7.35845
tion	-7.36626
tic	-7.37067
▁dis	-7.37807
▁even	-7.38399
ting	-7.38772
▁could	-7.39135
▁take	-7.39279
na	-7.3959
▁first	-7.39652
▁kind	-7.39682
▁pre	-7.40389
▁things	-7.40841
ther	-7.41124
▁point	-7.41369
em	-7.42076
ted	-7.43111
und	-7.43698
pri	-7.44013
ga	-7.44201
▁five	-7.44438
co	-7.44583
▁well	-7.44684
ated	-7.44854
act	-7.44863
▁lot	-7.45756
ac	-7.45904
ine	-7.46462
ty	-7.46511
id	-7.47454
ff	-7.47814
A	-7.49429
R	-7.50168
ction	-7.50486
▁K	-7.50644
▁good	-7.50661
est	-7.50792
▁Uhm	-7.50802
ever	-7.50975
ight	-7.52596
▁U	-7.52717
▁use	-7.5272
lu	-7.52782
▁un	-7.52892
▁come	-7.52907
▁four	-7.53434
▁something	-7.53483
ice	-7.53883
▁Co	-7.53963
▁actually	-7.54169
gu	-7.54576
▁Ma	-7.54703
ill	-7.54856
no	-7.55776
va	-7.55852
to	-7.55902
▁much	-7.56904
he	-7.5736
▁through	-7.57564
▁let	-7.57586
▁app	-7.57743
ical	-7.57989
▁start	-7.58174
▁little	-7.58803
C	-7.58867
▁new	-7.58988
▁said	-7.59471
ide	-7.59676
▁eight	-7.59762
par	-7.59777
cre	-7.60082
▁la	-7.60488
▁she	-7.60825
wi	-7.61384
▁different	-7.61877
▁does	-7.62484
port	-7.62988
▁thing	-7.63159
▁only	-7.63196
sion	-7.63352
low	-7.63854
▁than	-7.63867
▁off	-7.64384
▁down	-7.64737
ian	-7.6482
▁They	-7.64849
tri	-7.64881
▁give	-7.64996
ful	-7.6558
▁her	-7.65603
sp	-7.6585
form	-7.65982
▁should	-7.66036
wa	-7.66038
ru	-7.66202
I	-7.66748
▁nineteen	-7.67091
▁him	-7.67277
pos	-7.67779
ure	-7.67883
fe	-7.67948
ia	-7.68257
up	-7.68814
ph	-7.69216
sta	-7.69579
▁thousand	-7.6968
▁question	-7.69826
gra	-7.69906
▁There	-7.70251
ud	-7.72241
ish	-7.72647
L	-7.72698
mb	-7.73031
P	-7.73108
cl	-7.73299
▁man	-7.73448
line	-7.73479
▁If	-7.7426
iv	-7.75297
▁Re	-7.75328
▁No	-7.75797
od	-7.75876
ot	-7.76273
▁comm	-7.76443
▁What	-7.76516
tre	-7.76632
ni	-7.76721
ab	-7.77637
▁V	-7.78463
su	-7.81035
▁show	-7.81081
▁put	-7.81544
way	-7.82402
com	-7.82926
...	-7.82946
▁many	-7.83212
der	-7.83661
ran	-7.83913
ations	-7.83967
▁every	-7.84412
▁being	-7.85512
▁most	-7.85676
▁day	-7.8651
▁state	-7.86588
tor	-7.87406
▁case	-7.87777
pi	-7.88128
ign	-7.88354
▁Now	-7.88747
out	-7.88833
▁Okay	-7.8914
rt	-7.8919
▁six	-7.89747
▁help	-7.89938
▁same	-7.90286
tru	-7.9043
man	-7.90433
ary	-7.90634
ven	-7.90765
j	-7.91515
ag	-7.91659
fer	-7.91786
ts	-7.9261
▁talk	-7.9276
▁exp	-7.9306
▁again	-7.9315
▁Do	-7.93303
ub	-7.93404
ities	-7.93806
H	-7.94077
land	-7.94162
red	-7.94447
▁great	-7.94765
rm	-7.94776
go	-7.95388
ving	-7.95499
ture	-7.95692
ative	-7.96068
ow	-7.96088
less	-7.96296
▁after	-7.96872
▁happen	-7.96945
vo	-7.97068
▁before	-7.97494
▁hear	-7.97624
▁De	-7.97788
▁find	-7.98049
ward	-7.98202
▁bit	-7.98514
▁years	-7.98786
tu	-7.98988
▁high	-7.99035
ual	-7.99173
ple	-7.99838
▁doing	-8.00248
ig	-8.00299
da	-8.00358
T	-8.00515
tain	-8.00568
ell	-8.00587
cent	-8.00923
pp	-8.01252
ast	-8.01693
O	-8.02254
▁change	-8.02489
ite	-8.02584
lic	-8.02747
▁number	-8.02807
▁under	-8.03576
ions	-8.03759
▁still	-8.03767
▁data	-8.03861
ber	-8.04061
E	-8.04235
▁seven	-8.04413
mar	-8.04465
ju	-8.0479
ition	-8.0494
cha	-8.04991
cul	-8.05243
gen	-8.05452
▁car	-8.05481
▁system	-8.05985
▁equal	-8.06015
ach	-8.065
▁sub	-8.07151
▁around	-8.07294
▁may	-8.07421
▁person	-8.07582
▁long	-8.07733
rate	-8.07902
▁fact	-8.0883
bu	-8.0892
▁inter	-8.09129
▁life	-8.09449
▁Yeah	-8.09487
▁important	-8.09591
ating	-8.09691
▁Ca	-8.09819
air	-8.10346
▁place	-8.10729
▁why	-8.10912
ial	-8.11041
▁own	-8.11262
▁world	-8.1128
▁To	-8.11347
▁feel	-8.1136
▁All	-8.11649
▁might	-8.13042
int	-8.13286
▁plan	-8.1348
▁add	-8.13588
cor	-8.13813
▁Well	-8.13835
ness	-8.13908
▁course	-8.14119
▁play	-8.14141
▁made	-8.14533
serv	-8.14609
▁Ha	-8.14612
▁Ju	-8.14918
▁set	-8.15153
for	-8.15209
ft	-8.15219
▁video	-8.15411
ak	-8.15453
▁next	-8.15985
▁For	-8.16723
ctor	-8.16798
ki	-8.16953
M	-8.17098
▁ask	-8.17103
light	-8.17208
▁real	-8.17359
ner	-8.17365
▁read	-8.17597
▁trans	-8.17781
tern	-8.17987
ize	-8.18221
vol	-8.18947
▁example	-8.19648
▁year	-8.19899
▁sure	-8.19943
▁last	-8.20041
nk	-8.20161
▁another	-8.20183
▁tell	-8.20761
▁Se	-8.21017
Y	-8.21107
▁Mo	-8.21378
day	-8.21552
▁name	-8.21585
▁such	-8.21626
ron	-8.21713
▁nine	-8.21934
▁thirty	-8.22338
mon	-8.23019
▁used	-8.23079
ook	-8.24311
▁between	-8.24419
▁big	-8.24784
pla	-8.24893
▁God	-8.24972
ration	-8.25152
con	-8.25346
struct	-8.25362
▁love	-8.25558
▁percent	-8.25793
▁move	-8.2589
▁Oh	-8.25976
▁today	-8.2601
cur	-8.26045
cri	-8.26057
elect	-8.26434
ob	-8.26815
use	-8.26868
▁interest	-8.27825
▁issue	-8.2801
mer	-8.2842
▁second	-8.28446
▁open	-8.28869
hu	-8.29193
▁Ho	-8.29211
▁How	-8.29223
▁develop	-8.29785
▁bro	-8.29799
bra	-8.29876
fin	-8.30055
nu	-8.30167
ism	-8.30201
▁always	-8.30235
▁Ro	-8.30316
ible	-8.30367
▁learn	-8.30547
▁La	-8.30901
row	-8.31308
ident	-8.3145
▁hand	-8.31485
cept	-8.31555
ton	-8.31777
N	-8.32755
▁Thank	-8.32802
▁Go	-8.33271
press	-8.33349
▁term	-8.3353
▁problem	-8.33572
▁done	-8.33952
▁call	-8.34549
har	-8.34882
▁fifty	-8.36211
▁support	-8.36321
ship	-8.36395
▁Ja	-8.36677
▁understand	-8.37223
log	-8.37468
ator	-8.37551
tch	-8.37554
cra	-8.37579
▁both	-8.3773
ang	-8.37898
▁found	-8.38088
▁sort	-8.38352
▁Hi	-8.38427
▁Mi	-8.38613
tro	-8.39543
▁process	-8.39763
▁Li	-8.39767
▁called	-8.39863
▁Pa	-8.4023
B	-8.40562
▁run	-8.40963
▁each	-8.41286
▁power	-8.42237
▁maybe	-8.42302
▁keep	-8.42358
▁idea	-8.42464
▁create	-8.43779
▁word	-8.43993
▁never	-8.43999
▁live	-8.44278
▁Lo	-8.44691
▁came	-8.44883
fo	-8.44894
▁better	-8.45073
▁court	-8.45134
▁Let	-8.45434
ught	-8.45462
▁build	-8.45805
▁looking	-8.46143
ugh	-8.466
▁Di	-8.46647
▁forty	-8.47071
▁Da	-8.47282
▁reason	-8.47607
▁information	-8.47645
▁okay	-8.47691
▁believe	-8.4802
▁ninety	-8.48909
▁game	-8.48916
▁group	-8.49242
▁guys	-8.49432
ized	-8.49607
▁week	-8.50577
▁program	-8.50599
▁Al	-8.50695
▁side	-8.50891
▁student	-8.51114
▁stand	-8.51487
▁thought	-8.51526
val	-8.5154
▁already	-8.51694
spec	-8.51811
▁level	-8.52487
▁cap	-8.52664
▁order	-8.5273
▁try	-8.53494
▁government	-8.5361
▁When	-8.53815
▁law	-8.53856
▁follow	-8.54255
ific	-8.54305
▁Mar	-8.54412
▁talking	-8.54472
▁trying	-8.54807
▁product	-8.55561
▁Because	-8.55852
▁large	-8.56577
▁care	-8.5695
▁home	-8.57838
▁probably	-8.57917
▁member	-8.57957
▁everything	-8.57965
▁lead	-8.58084
▁few	-8.58928
▁whole	-8.59173
▁sixty	-8.59398
▁book	-8.59622
▁turn	-8.59787
▁getting	-8.60022
▁free	-8.60237
▁test	-8.60392
F	-8.60499
▁stuff	-8.60667
▁fun	-8.60863
▁type	-8.6089
▁thank	-8.6102
▁having	-8.61044
cut	-8.61051
qui	-8.61261
▁together	-8.61481
▁particular	-8.61655
▁project	-8.6169
▁zero	-8.61802
▁while	-8.62132
rel	-8.62391
▁class	-8.6245
▁certain	-8.62726
▁du	-8.62899
ability	-8.63554
▁She	-8.63797
▁provide	-8.6384
▁anything	-8.63898
▁coming	-8.63989
fra	-8.64133
▁close	-8.64191
▁main	-8.6504
▁hard	-8.65209
▁small	-8.65411
▁money	-8.659
▁eighteen	-8.67596
▁seventy	-8.67764
ency	-8.68143
▁pass	-8.68269
U	-8.69108
▁America	-8.69253
▁allow	-8.6929
▁water	-8.69465
▁clear	-8.69531
▁public	-8.69645
▁business	-8.69674
▁service	-8.70197
▁school	-8.70328
▁Or	-8.7051
▁value	-8.70636
▁leg	-8.70747
▁pretty	-8.70938
▁bring	-8.70972
Th	-8.71139
▁hope	-8.71143
▁present	-8.71233
V	-8.72395
▁whether	-8.72489
fu	-8.73182
▁went	-8.73347
▁experience	-8.74148
▁old	-8.74351
▁against	-8.75783
▁Le	-8.75833
▁human	-8.7584
titut	-8.7588
▁making	-8.76233
position	-8.76509
G	-8.76837
▁consider	-8.76903
▁Mister	-8.7708
▁become	-8.77127
▁war	-8.77369
▁record	-8.77451
▁dollars	-8.77466
▁Like	-8.77595
▁control	-8.78177
▁left	-8.78235
▁result	-8.79075
▁include	-8.79208
▁share	-8.79295
▁must	-8.7999
▁design	-8.80009
▁mind	-8.80025
▁Ra	-8.80125
▁space	-8.80305
▁month	-8.80463
▁market	-8.80866
▁community	-8.81017
▁watch	-8.81485
▁during	-8.81528
Q	-8.81614
▁effect	-8.81735
▁specific	-8.81764
▁Christ	-8.81987
▁answer	-8.82346
▁yeah	-8.82455
ject	-8.82671
▁speak	-8.82758
▁require	-8.83264
▁agree	-8.83515
▁grow	-8.83746
▁else	-8.84014
▁research	-8.84159
tribut	-8.84251
▁pay	-8.8467
▁New	-8.84688
▁friend	-8.85152
▁full	-8.85797
▁general	-8.85808
▁teach	-8.8682
▁oh	-8.86963
▁though	-8.87044
▁job	-8.87549
▁quite	-8.88322
mission	-8.88497
▁enough	-8.88545
▁access	-8.88723
▁cause	-8.89065
▁discuss	-8.8908
▁minute	-8.89272
▁European	-8.89683
Z	-8.89715
▁country	-8.89754
▁since	-8.89843
▁Je	-8.90526
▁view	-8.90672
▁connect	-8.91207
graph	-8.91298
ify	-8.91614
▁health	-8.92556
▁basically	-8.92712
▁team	-8.92719
▁focus	-8.9274
▁check	-8.92886
▁fifteen	-8.9305
▁house	-8.93079
▁matter	-8.93805
▁complete	-8.93845
▁step	-8.93918
▁based	-8.94089
strict	-8.94297
▁function	-8.94405
▁remember	-8.94412
▁Yes	-8.94826
▁least	-8.94964
ttle	-8.95005
▁continue	-8.9509
commun	-8.96033
▁language	-8.97497
▁social	-8.98251
duct	-8.98794
▁rule	-8.98852
▁model	-8.99645
▁quick	-8.99965
▁United	-9.00834
▁Jo	-9.00904
▁Right	-9.01119
▁invest	-9.01498
▁until	-9.02051
▁final	-9.02208
▁million	-9.02628
ization	-9.02762
▁multi	-9.02819
▁sense	-9.02917
▁twelve	-9.03511
ified	-9.0372
▁couple	-9.03987
▁energy	-9.04633
▁current	-9.04757
▁family	-9.05691
J	-9.05977
▁link	-9.06073
▁nothing	-9.06124
▁short	-9.07928
▁possible	-9.08011
▁please	-9.08432
▁situation	-9.0864
▁object	-9.08976
▁either	-9.09508
▁decision	-9.09682
▁future	-9.10034
script	-9.10959
▁story	-9.11085
▁body	-9.11199
X	-9.11326
▁States	-9.11582
▁major	-9.11864
▁guess	-9.12067
▁click	-9.12422
▁along	-9.13263
▁half	-9.13836
▁third	-9.14746
▁saw	-9.14988
ology	-9.15222
▁success	-9.15367
▁claim	-9.15367
▁across	-9.15443
▁join	-9.15621
▁yourself	-9.15635
▁represent	-9.15685
▁protect	-9.15719
▁sometimes	-9.15791
▁leave	-9.16357
▁write	-9.16696
▁author	-9.17038
▁taking	-9.17424
▁individual	-9.17637
▁super	-9.17906
▁break	-9.1804
▁everybody	-9.19182
▁With	-9.19659
▁text	-9.198
▁walk	-9.20007
▁increase	-9.2037
▁strong	-9.20705
▁region	-9.20954
▁countries	-9.21097
▁field	-9.21456
▁including	-9.21466
▁source	-9.22059
▁available	-9.22304
▁account	-9.22417
▁character	-9.22621
▁company	-9.22971
▁sixteen	-9.23071
▁eleven	-9.23299
▁figure	-9.23368
▁food	-9.23369
K	-9.23524
▁organization	-9.23563
▁women	-9.23628
▁almost	-9.23922
▁collect	-9.24023
▁evidence	-9.24173
▁favor	-9.24249
ibility	-9.24275
▁address	-9.244
▁environment	-9.24667
▁seventeen	-9.2468
▁especially	-9.25238
▁decide	-9.25892
▁children	-9.25927
▁practice	-9.26182
▁somebody	-9.26223
▁content	-9.26632
▁safe	-9.28728
▁itself	-9.29337
▁Jesus	-9.29559
▁receive	-9.30142
▁period	-9.30217
▁several	-9.31037
▁John	-9.31069
▁cannot	-9.31185
▁difficult	-9.31255
▁concern	-9.31647
▁special	-9.31762
▁amount	-9.31782
▁custom	-9.31828
▁material	-9.32187
▁piece	-9.32941
▁engine	-9.32979
▁difference	-9.33426
▁produce	-9.33426
▁entire	-9.34231
▁wrong	-9.34491
▁study	-9.34839
▁similar	-9.34979
▁approach	-9.35163
▁education	-9.35291
▁Comm	-9.35799
▁wonder	-9.36183
▁easy	-9.36233
▁exactly	-9.36366
▁challenge	-9.36561
▁history	-9.36565
▁ahead	-9.36853
▁policy	-9.37243
▁condition	-9.37448
▁mentioned	-9.37642
▁remain	-9.37849
▁simple	-9.38261
▁depend	-9.38635
▁return	-9.3881
▁further	-9.38871
▁application	-9.38906
▁drive	-9.38954
▁fourteen	-9.39028
▁political	-9.39154
▁yeaah	-9.40475
▁national	-9.40505
▁measure	-9.40742
▁myself	-9.4111
▁relationship	-9.41281
▁black	-9.41958
▁document	-9.41966
▁thirteen	-9.42537
▁network	-9.42549
▁element	-9.43211
▁employ	-9.43218
▁respect	-9.43319
▁became	-9.43912
W	-9.44481
▁technology	-9.4472
▁regard	-9.45006
▁review	-9.45141
q	-10.1426
