<unk>	0
<EOS>	0
▁	-2.1185
▁the	-3.07632
▁to	-3.66831
▁and	-3.72211
▁that	-3.87678
▁of	-3.88396
'	-3.88704
s	-3.9309
▁a	-4.06457
▁in	-4.23409
▁i	-4.27967
▁is	-4.41526
▁you	-4.42178
▁it	-4.42904
▁we	-4.50858
▁this	-4.79871
▁for	-4.9602
▁so	-5.0345
▁have	-5.05096
▁on	-5.13666
▁be	-5.17479
▁was	-5.22075
t	-5.23093
▁are	-5.29338
▁with	-5.33374
▁not	-5.3457
▁but	-5.41578
▁they	-5.42397
▁there	-5.46268
▁as	-5.46842
▁what	-5.54656
▁can	-5.62985
▁at	-5.65086
re	-5.65333
▁if	-5.71245
▁one	-5.72366
▁or	-5.73066
▁he	-5.74788
▁all	-5.83355
▁do	-5.83789
▁about	-5.92161
▁from	-5.93919
▁like	-5.9528
▁an	-5.95462
▁by	-5.98785
▁would	-5.9934
▁think	-5.99594
▁which	-6.00812
▁just	-6.00994
▁your	-6.02457
▁will	-6.03689
m	-6.04849
▁because	-6.06209
▁know	-6.0833
▁our	-6.12848
▁very	-6.18876
▁has	-6.19542
▁here	-6.21862
▁my	-6.23326
▁also	-6.24118
▁then	-6.24248
▁going	-6.26387
▁now	-6.27433
▁when	-6.27577
▁these	-6.33354
▁some	-6.34641
▁had	-6.35426
▁more	-6.36453
▁out	-6.40924
▁two	-6.41038
▁don	-6.42758
▁were	-6.43424
▁been	-6.4441
▁up	-6.45282
▁people	-6.45962
▁no	-6.46373
▁how	-6.48992
▁time	-6.49516
▁their	-6.50404
▁his	-6.50601
▁other	-6.50715
d	-6.52009
▁well	-6.52954
▁me	-6.5387
▁get	-6.5402
▁who	-6.5679
ve	-6.57862
▁see	-6.58397
▁want	-6.60258
▁right	-6.60949
▁those	-6.61386
▁really	-6.61724
▁court	-6.62483
▁them	-6.63597
▁need	-6.67174
▁go	-6.68102
▁say	-6.68599
▁where	-6.69126
▁she	-6.7569
▁us	-6.75856
▁into	-6.78308
▁case	-6.78864
▁make	-6.79597
▁could	-6.80103
▁first	-6.80879
▁said	-6.81216
▁should	-6.81544
ing	-6.821
ed	-6.82989
▁any	-6.84739
▁way	-6.85604
ll	-6.90599
▁only	-6.94352
▁look	-6.95609
▁much	-6.97012
▁thank	-6.97486
▁point	-6.99164
▁her	-7.00363
▁work	-7.00374
▁did	-7.00449
▁things	-7.02519
▁three	-7.05331
▁let	-7.06064
▁something	-7.06486
▁good	-7.07199
▁even	-7.09656
▁new	-7.09668
▁take	-7.09755
▁back	-7.10186
▁over	-7.10866
▁actually	-7.11609
▁than	-7.13785
▁different	-7.1385
▁european	-7.17739
▁use	-7.19126
▁lot	-7.21687
▁question	-7.22053
▁hundred	-7.22623
▁being	-7.22673
▁important	-7.23164
▁got	-7.23882
▁through	-7.26289
▁why	-7.26475
▁kind	-7.27609
▁many	-7.28031
▁him	-7.2809
▁come	-7.28137
▁same	-7.30752
▁again	-7.30832
▁before	-7.33243
▁thing	-7.35533
▁little	-7.35579
▁may	-7.38302
▁twenty	-7.40371
▁made	-7.40389
▁part	-7.40799
▁years	-7.42174
▁under	-7.42411
▁fact	-7.42538
▁put	-7.42866
▁after	-7.44274
▁five	-7.44771
▁course	-7.45754
▁states	-7.46292
▁mister	-7.46794
▁most	-7.47226
▁does	-7.47233
▁down	-7.47521
▁issue	-7.48173
▁whether	-7.48391
▁mean	-7.48745
▁state	-7.49614
ly	-7.51967
▁okay	-7.54314
▁still	-7.55245
▁give	-7.55614
▁yeah	-7.56332
▁four	-7.56391
▁number	-7.5763
y	-7.57921
▁didn	-7.59733
▁commission	-7.60176
▁doing	-7.60459
▁between	-7.6161
▁law	-7.6222
▁find	-7.62432
▁against	-7.62516
▁sure	-7.63293
▁year	-7.63704
▁another	-7.64246
▁today	-7.6483
▁member	-7.65256
▁might	-7.66306
e	-7.67663
▁able	-7.67875
▁next	-7.68357
▁done	-7.68854
▁last	-7.68999
▁day	-7.71957
▁such	-7.72348
▁information	-7.73033
▁both	-7.74133
▁government	-7.74606
▁every	-7.74931
▁thousand	-7.75017
▁example	-7.7532
▁doesn	-7.75763
▁own	-7.75819
▁believe	-7.76117
▁evidence	-7.7622
▁order	-7.77856
▁great	-7.78606
▁second	-7.78826
▁its	-7.79035
▁bit	-7.79632
▁world	-7.80739
er	-7.82521
▁place	-7.82647
▁data	-7.82853
▁help	-7.82878
▁end	-7.83535
▁system	-7.8423
▁yes	-7.84711
▁used	-7.84824
▁talk	-7.85654
▁too	-7.85756
▁looking	-7.8706
▁support	-7.87303
▁already	-7.87664
▁never	-7.88307
▁saying	-7.89289
▁district	-7.90135
▁each	-7.90175
▁life	-7.90257
▁around	-7.90486
▁must	-7.90667
▁maybe	-7.90875
▁says	-7.91441
▁start	-7.91505
▁eu	-7.9195
▁long	-7.9204
▁change	-7.92377
▁clear	-7.93007
▁always	-7.93287
▁problem	-7.94108
▁better	-7.94399
▁process	-7.94438
▁money	-7.94663
▁talking	-7.95517
▁six	-7.96922
n	-7.9876
▁set	-7.99196
▁show	-7.99221
▁off	-7.99433
▁public	-7.99582
▁countries	-8.00188
▁understand	-8.00222
▁having	-8.00334
▁ten	-8.00471
▁means	-8.0063
▁working	-8.00686
▁union	-8.0149
▁terms	-8.01655
▁level	-8.0214
▁percent	-8.02335
▁within	-8.02376
▁sort	-8.02922
▁try	-8.0296
▁together	-8.03747
▁judge	-8.03767
▁without	-8.03768
▁person	-8.04746
▁open	-8.05144
▁europe	-8.05593
▁trying	-8.06081
▁report	-8.06709
▁uh	-8.06756
▁questions	-8.07106
▁policy	-8.07503
▁whole	-8.07734
▁found	-8.07937
▁issues	-8.08546
▁tell	-8.08564
▁particular	-8.08596
▁country	-8.09335
▁record	-8.0952
▁honor	-8.10609
▁ask	-8.10661
▁parliament	-8.11406
▁oh	-8.12769
▁situation	-8.12861
▁anything	-8.14489
▁area	-8.14766
r	-8.14783
▁decision	-8.15111
▁once	-8.16299
▁high	-8.16489
▁using	-8.16951
▁man	-8.1728
▁based	-8.17916
▁best	-8.181
▁while	-8.18282
▁came	-8.18848
▁everything	-8.18917
▁quite	-8.18937
▁few	-8.18965
▁committee	-8.19031
▁called	-8.19101
▁am	-8.19803
▁comes	-8.19969
▁god	-8.19996
▁given	-8.20593
▁side	-8.20821
▁far	-8.20986
▁call	-8.21182
▁big	-8.21215
▁rights	-8.21509
▁seven	-8.21698
▁keep	-8.21836
▁video	-8.22083
▁feel	-8.2209
▁school	-8.22521
▁coming	-8.22964
▁reason	-8.23277
a	-8.24529
▁market	-8.24882
▁making	-8.25201
▁name	-8.25283
▁future	-8.25655
▁during	-8.26914
▁agreement	-8.26999
▁went	-8.27214
▁idea	-8.273
▁eight	-8.27941
▁possible	-8.28851
▁gonna	-8.28987
▁getting	-8.29182
▁position	-8.29281
▁cases	-8.29424
▁community	-8.29457
▁matter	-8.29481
▁national	-8.29773
▁council	-8.29947
▁enough	-8.30094
▁claim	-8.31063
▁human	-8.31415
es	-8.31572
▁nothing	-8.31675
▁however	-8.31747
▁thought	-8.3197
▁probably	-8.31979
▁forward	-8.32154
▁wanted	-8.32507
▁general	-8.32686
▁certain	-8.32908
▁board	-8.32931
▁least	-8.33262
▁group	-8.33633
▁argument	-8.34095
▁away	-8.34317
▁home	-8.34358
▁water	-8.34529
▁business	-8.34541
▁real	-8.3474
▁dollars	-8.34933
▁move	-8.35089
▁hope	-8.36147
▁house	-8.3633
▁social	-8.36375
▁specific	-8.38554
▁small	-8.3899
▁energy	-8.39589
▁love	-8.39782
▁since	-8.40055
▁um	-8.40304
▁trial	-8.40763
al	-8.41064
▁please	-8.41288
▁left	-8.42044
▁seen	-8.4209
▁times	-8.42652
▁answer	-8.42992
▁cannot	-8.43133
▁read	-8.43281
▁power	-8.43408
▁president	-8.43639
▁program	-8.43743
▁line	-8.43975
▁action	-8.44256
▁upon	-8.44403
▁needs	-8.44406
▁later	-8.45172
▁though	-8.45263
▁hand	-8.45758
▁thirty	-8.46104
▁third	-8.47504
▁act	-8.47751
▁taken	-8.47878
▁development	-8.47966
▁basically	-8.4814
▁political	-8.48201
▁nine	-8.48334
▁city	-8.48759
▁access	-8.4898
▁therefore	-8.4915
▁asked	-8.4922
▁members	-8.49282
▁united	-8.49844
▁either	-8.49874
▁women	-8.49893
▁project	-8.49949
▁zero	-8.50011
▁less	-8.50141
▁further	-8.50324
▁single	-8.50899
▁goes	-8.51174
▁free	-8.5158
▁plan	-8.51623
▁fifty	-8.51631
▁bring	-8.51693
▁research	-8.51831
▁health	-8.51922
▁provide	-8.52046
▁create	-8.52084
▁c	-8.52098
▁certainly	-8.52512
▁simply	-8.52594
▁agree	-8.52951
▁students	-8.53291
▁old	-8.53335
▁else	-8.53631
▁value	-8.53678
▁yet	-8.53837
▁sense	-8.53919
▁care	-8.53972
▁whatever	-8.54091
▁type	-8.54121
▁moment	-8.54224
▁nineteen	-8.5472
▁pretty	-8.54909
▁ever	-8.55309
▁often	-8.55968
▁true	-8.56082
▁taking	-8.56461
▁view	-8.56489
▁deal	-8.56853
▁respect	-8.56855
▁mind	-8.56978
▁common	-8.57087
▁words	-8.57393
▁children	-8.57833
▁pay	-8.58019
▁language	-8.58028
▁rule	-8.58107
▁isn	-8.58475
▁vote	-8.58529
▁service	-8.58558
▁started	-8.58855
▁took	-8.5888
▁wasn	-8.58889
▁job	-8.58952
▁family	-8.59049
▁until	-8.59136
▁continue	-8.59549
▁opportunity	-8.59841
▁security	-8.60016
▁available	-8.60089
▁sometimes	-8.60709
▁control	-8.60897
▁hard	-8.60954
▁mentioned	-8.61005
▁problems	-8.61057
▁legal	-8.61099
▁rather	-8.61495
in	-8.61635
▁full	-8.61685
o	-8.61702
▁itself	-8.62151
▁un	-8.62657
▁meeting	-8.62876
▁happened	-8.62931
▁amendment	-8.63401
▁remember	-8.63503
▁heard	-8.63591
▁exactly	-8.63696
▁someone	-8.63701
▁hear	-8.63919
▁word	-8.63955
▁basis	-8.64365
▁economic	-8.64517
▁interest	-8.64552
▁days	-8.64944
i	-8.65029
▁address	-8.65345
▁guys	-8.65792
▁add	-8.66421
▁perhaps	-8.66884
▁services	-8.66903
▁rules	-8.67456
▁told	-8.67706
▁become	-8.67828
▁live	-8.67886
▁experience	-8.68237
▁stuff	-8.68298
▁correct	-8.68559
▁happen	-8.68609
▁defendant	-8.68629
▁several	-8.68733
▁federal	-8.69713
▁obviously	-8.69826
▁clearly	-8.70004
▁statute	-8.70106
▁across	-8.7017
▁present	-8.7043
▁difficult	-8.70497
▁play	-8.70845
▁areas	-8.71084
▁week	-8.71135
▁standard	-8.71153
▁opinion	-8.71221
▁couple	-8.71368
▁step	-8.7165
▁young	-8.71991
▁company	-8.72225
▁light	-8.72447
▁key	-8.72715
▁makes	-8.72892
▁hearing	-8.72925
▁page	-8.72984
▁everybody	-8.73036
▁amount	-8.73248
▁top	-8.73312
▁everyone	-8.73399
▁especially	-8.73544
▁role	-8.73556
▁close	-8.7378
▁budget	-8.73932
▁share	-8.74186
▁past	-8.74426
▁trade	-8.74513
▁leave	-8.74553
▁citizens	-8.74627
▁review	-8.74683
▁financial	-8.74756
▁run	-8.74888
▁approach	-8.75633
▁period	-8.76108
▁involved	-8.76174
▁seems	-8.76452
able	-8.76894
▁local	-8.76971
▁building	-8.77021
▁half	-8.77213
▁months	-8.77636
▁favour	-8.77746
▁jury	-8.77872
▁allow	-8.77955
▁large	-8.78067
▁b	-8.78272
▁ensure	-8.78624
▁saw	-8.78816
▁term	-8.79279
▁focus	-8.79633
▁including	-8.79706
▁face	-8.80033
▁x	-8.8016
▁room	-8.80167
▁counsel	-8.80234
▁impact	-8.80271
▁result	-8.80319
▁somebody	-8.80511
▁million	-8.80574
▁wrong	-8.80979
▁ago	-8.81067
▁risk	-8.8109
ers	-8.81269
man	-8.81285
▁along	-8.81409
▁check	-8.81852
▁points	-8.81927
▁interesting	-8.81981
▁minutes	-8.82067
▁consider	-8.82123
▁list	-8.82175
▁almost	-8.82485
▁international	-8.82819
▁form	-8.83071
▁motion	-8.83213
▁book	-8.83669
▁current	-8.83721
▁main	-8.83735
▁space	-8.84336
▁education	-8.84445
▁thinking	-8.84907
▁context	-8.84946
▁won	-8.85185
▁fifteen	-8.85299
▁resources	-8.85317
▁account	-8.85328
▁body	-8.85384
▁discussion	-8.85469
▁food	-8.8549
▁turn	-8.85517
▁stop	-8.85523
▁men	-8.85577
▁twelve	-8.8615
▁brief	-8.86288
▁ways	-8.86332
▁tax	-8.86338
▁particularly	-8.86422
▁morning	-8.86693
▁apply	-8.8675
▁bad	-8.87038
▁final	-8.87246
▁individual	-8.8741
▁looked	-8.87413
▁known	-8.87591
▁cost	-8.89301
▁companies	-8.89308
▁forty	-8.89695
▁testimony	-8.90188
▁abstentions	-8.90381
▁doctor	-8.90388
▁proposal	-8.90436
▁class	-8.90491
▁notice	-8.9072
▁subject	-8.90888
▁speak	-8.91439
▁necessary	-8.91587
▁outside	-8.91645
▁finally	-8.91716
▁property	-8.92015
▁head	-8.92056
▁car	-8.9213
▁history	-8.92344
▁short	-8.92491
▁others	-8.9263
▁game	-8.92669
▁section	-8.93361
▁happy	-8.93605
▁town	-8.93615
▁analysis	-8.93616
▁indeed	-8.93905
▁claims	-8.93984
▁party	-8.94078
▁guess	-8.94094
▁learn	-8.94315
▁welcome	-8.94435
▁front	-8.94628
▁protection	-8.94665
▁child	-8.94775
▁major	-8.95291
▁judgment	-8.95395
▁knew	-8.95656
▁difference	-8.95719
▁war	-8.95936
▁click	-8.95955
▁force	-8.96053
▁instead	-8.96091
▁test	-8.96515
▁strong	-8.96572
▁facts	-8.97059
▁special	-8.9708
▁themselves	-8.9725
▁absolutely	-8.97277
▁various	-8.97357
▁de	-8.97812
▁contract	-8.98506
▁towards	-8.98721
▁brought	-8.98751
▁colleagues	-8.98881
en	-8.98928
▁cause	-8.9914
▁build	-8.9925
▁adopted	-8.99266
▁office	-8.99365
▁team	-8.99557
▁story	-8.99738
▁easy	-8.99943
▁plus	-8.99974
▁asking	-8.99985
▁specifically	-9.00079
▁per	-9.00528
▁statement	-9.00543
▁defense	-9.00872
▁increase	-9.00966
▁mr	-9.01274
▁reasons	-9.01404
▁reasonable	-9.01483
▁equal	-9.01558
ness	-9.01588
▁code	-9.01744
▁black	-9.01785
▁department	-9.01793
▁field	-9.01845
▁wouldn	-9.01915
▁white	-9.02237
c	-9.02432
▁due	-9.02512
▁effect	-9.02528
▁legislation	-9.02635
▁file	-9.02795
▁following	-9.02959
▁decided	-9.03052
▁yourself	-9.03146
▁police	-9.03184
▁haven	-9.03224
▁happens	-9.03351
▁f	-9.03385
▁required	-9.03625
▁non	-9.03708
▁follow	-9.03857
▁debate	-9.04104
▁crisis	-9.04387
▁p	-9.04765
▁talked	-9.05199
▁industry	-9.05247
▁appeal	-9.0526
▁needed	-9.05308
▁floor	-9.05613
▁night	-9.05796
▁learning	-9.05916
▁meet	-9.05963
▁nice	-9.05968
▁works	-9.06122
▁model	-9.06445
▁myself	-9.06553
▁air	-9.06847
▁additional	-9.06896
▁simple	-9.06919
▁behind	-9.07135
▁gave	-9.07381
▁results	-9.0765
▁finding	-9.07724
▁heart	-9.07744
▁text	-9.07799
▁regulation	-9.07827
▁measures	-9.0788
▁society	-9.08421
▁similar	-9.08472
▁nature	-9.08628
▁parties	-9.08636
▁low	-9.08792
▁table	-9.08796
▁knowledge	-9.08842
▁technology	-9.09395
▁longer	-9.09668
▁positive	-9.09737
▁content	-9.09794
▁include	-9.09821
▁purpose	-9.10063
▁red	-9.10475
▁american	-9.10555
▁sorry	-9.10611
▁raised	-9.10654
▁study	-9.10659
on	-9.10681
▁below	-9.11004
▁rest	-9.11127
▁carried	-9.11275
▁product	-9.11287
▁changes	-9.11297
▁bill	-9.11337
▁function	-9.11363
▁ahead	-9.11608
▁post	-9.11848
▁soon	-9.11912
▁completely	-9.11971
▁early	-9.1215
▁attention	-9.12386
▁management	-9.1267
▁conditions	-9.12889
▁held	-9.13004
▁supreme	-9.1305
▁fair	-9.13056
▁groups	-9.13077
▁practice	-9.13077
▁cooperation	-9.13219
▁ready	-9.13307
▁moving	-9.13307
▁happening	-9.13381
▁beginning	-9.13394
▁projects	-9.13602
▁himself	-9.13729
▁congress	-9.13976
▁private	-9.14084
▁response	-9.14175
▁application	-9.1435
▁sixty	-9.14702
▁aware	-9.15085
▁giving	-9.15106
▁earlier	-9.15277
▁related	-9.15335
▁products	-9.15359
▁training	-9.15393
▁looks	-9.15496
▁search	-9.1552
▁father	-9.15672
▁green	-9.15769
▁ninety	-9.15802
▁land	-9.15884
▁sector	-9.15919
▁entire	-9.16109
▁ground	-9.16195
▁quality	-9.16308
▁environment	-9.16309
▁beyond	-9.16397
▁circuit	-9.16642
k	-9.16909
▁actual	-9.16968
▁higher	-9.16986
▁justice	-9.17285
▁stay	-9.17408
▁relationship	-9.17644
▁media	-9.177
b	-9.17869
▁worked	-9.17887
▁favor	-9.18084
▁decide	-9.18157
▁agency	-9.18321
▁systems	-9.18416
▁created	-9.18461
▁provided	-9.18575
▁funds	-9.19114
▁living	-9.19324
or	-9.19722
▁eleven	-9.19725
▁bank	-9.19907
▁design	-9.19942
▁understanding	-9.20119
▁rate	-9.20358
▁written	-9.20367
▁shall	-9.20462
▁inside	-9.20467
▁eighteen	-9.20504
▁among	-9.20532
▁economy	-9.20544
▁solution	-9.21027
▁huge	-9.211
▁error	-9.21123
▁significant	-9.21221
▁considered	-9.21291
▁write	-9.21299
▁center	-9.21368
▁quickly	-9.2154
▁figure	-9.21653
▁gone	-9.21675
▁prior	-9.21923
▁hold	-9.22024
▁online	-9.222
▁send	-9.22306
▁eighty	-9.22468
▁link	-9.22598
▁authority	-9.22688
▁county	-9.22746
▁seeing	-9.22765
▁investment	-9.22783
▁university	-9.22965
▁shows	-9.23144
▁instance	-9.23235
▁chair	-9.23316
▁price	-9.23615
▁benefit	-9.23643
▁hours	-9.237
▁although	-9.23714
▁challenge	-9.23744
ity	-9.2381
▁trust	-9.2408
▁comments	-9.24112
▁officer	-9.24152
ic	-9.24331
▁progress	-9.24546
ation	-9.24649
▁potential	-9.2486
▁received	-9.24875
▁growth	-9.25036
▁client	-9.25431
▁lead	-9.25511
▁material	-9.2556
▁allowed	-9.25675
▁month	-9.26434
▁note	-9.26438
▁reach	-9.26474
▁negative	-9.26687
▁safety	-9.26713
▁appropriate	-9.2696
▁article	-9.27017
▁interested	-9.27138
▁personal	-9.2715
▁conduct	-9.27342
▁framework	-9.27563
▁fine	-9.27603
▁regard	-9.27647
▁friends	-9.27722
▁road	-9.27997
▁concerned	-9.28684
▁lost	-9.28776
▁medical	-9.28859
▁sentence	-9.28968
▁usually	-9.29031
▁direction	-9.29041
▁takes	-9.29059
▁reading	-9.29106
▁death	-9.29219
▁v	-9.29256
▁standards	-9.29608
▁middle	-9.29753
▁k	-9.29864
▁direct	-9.29886
l	-9.29962
▁improve	-9.29984
▁letter	-9.30011
▁currently	-9.30059
▁definitely	-9.30101
▁source	-9.30113
▁institutions	-9.30122
▁policies	-9.30289
▁chairman	-9.3038
▁region	-9.30464
▁south	-9.30499
▁programs	-9.30569
▁tried	-9.30853
▁paper	-9.30892
▁fire	-9.31199
▁gives	-9.31209
▁fund	-9.31441
▁global	-9.31485
▁became	-9.31528
▁protect	-9.31584
▁decisions	-9.31813
▁mother	-9.31852
▁fully	-9.31866
▁couldn	-9.31955
▁changed	-9.31975
▁north	-9.32003
x	-9.32106
▁directly	-9.32276
▁wait	-9.32641
▁staff	-9.32739
f	-9.32741
▁date	-9.33008
▁throughout	-9.33229
g	-9.33493
▁cut	-9.33526
▁document	-9.33604
▁separate	-9.33639
▁jobs	-9.33674
▁civil	-9.33943
▁original	-9.34079
▁strategy	-9.34208
▁piece	-9.34248
▁stand	-9.34393
▁presented	-9.34405
▁activities	-9.34564
▁climate	-9.34676
▁essentially	-9.34714
▁fight	-9.34736
▁request	-9.34755
▁running	-9.34999
▁funding	-9.35015
▁complaint	-9.35033
▁range	-9.35175
▁effective	-9.35179
▁sixteen	-9.35264
▁ability	-9.35273
▁lower	-9.35329
▁choose	-9.35768
▁authorities	-9.35889
▁criminal	-9.36155
▁sent	-9.36181
▁putting	-9.36194
▁circumstances	-9.36305
▁bar	-9.36481
▁digital	-9.36486
▁pre	-9.36577
▁paid	-9.36918
▁channel	-9.37051
▁crime	-9.37353
▁lack	-9.37432
p	-9.37544
▁jesus	-9.37545
▁necessarily	-9.37572
▁explain	-9.38032
ton	-9.38125
▁fourteen	-9.38135
▁felt	-9.38166
▁hit	-9.38174
▁relevant	-9.38216
▁serious	-9.38306
▁plaintiff	-9.38468
▁door	-9.38686
▁amendments	-9.38823
▁basic	-9.38985
▁thirteen	-9.38995
▁science	-9.39004
▁offer	-9.39136
▁starting	-9.39198
▁return	-9.39352
▁g	-9.39411
▁comment	-9.39499
▁limited	-9.39735
▁woman	-9.39762
▁rejected	-9.39769
▁elements	-9.39888
▁responsibility	-9.39903
▁anyone	-9.39909
▁according	-9.40097
▁hands	-9.40125
▁buy	-9.4021
▁balance	-9.40221
▁stage	-9.40372
▁included	-9.40496
▁lord	-9.40561
▁discuss	-9.40648
▁values	-9.40973
▁attorney	-9.41058
▁art	-9.41293
▁sign	-9.41366
le	-9.41421
▁gets	-9.41532
▁types	-9.41641
▁seem	-9.4169
▁agenda	-9.41731
▁pressure	-9.41834
▁cross	-9.42032
▁lives	-9.42167
▁minute	-9.42221
▁eyes	-9.42474
▁greater	-9.42487
▁series	-9.42501
▁regarding	-9.42549
▁applied	-9.42602
▁concerns	-9.42602
▁develop	-9.42671
▁commissioner	-9.42749
▁otherwise	-9.42969
▁fundamental	-9.43145
▁wish	-9.43223
▁dealing	-9.43453
▁complete	-9.43484
▁co	-9.43518
▁tools	-9.43556
▁burden	-9.4361
▁website	-9.43712
▁structure	-9.43838
▁save	-9.43846
▁natural	-9.43937
▁size	-9.43939
▁previous	-9.44033
▁friend	-9.44036
▁definition	-9.44117
▁student	-9.44188
▁above	-9.4424
▁message	-9.44335
▁added	-9.44437
us	-9.44689
▁weeks	-9.4472
▁picture	-9.44781
▁ideas	-9.44846
▁seventy	-9.44857
▁chance	-9.44941
▁event	-9.45211
▁network	-9.45278
▁cover	-9.45409
▁sea	-9.4545
▁parts	-9.45522
rs	-9.45533
▁supposed	-9.45552
▁o	-9.45567
▁age	-9.45592
ling	-9.45797
▁site	-9.45921
▁addition	-9.46034
▁college	-9.46133
▁numbers	-9.46273
▁cool	-9.46367
▁production	-9.46383
▁street	-9.46404
▁capital	-9.46427
▁forth	-9.46448
▁library	-9.4648
▁u	-9.46508
▁challenges	-9.46526
▁costs	-9.46587
▁directive	-9.46679
▁central	-9.46745
▁self	-9.4678
▁blue	-9.4683
▁implementation	-9.46889
▁benefits	-9.47002
▁speaking	-9.47044
▁resolution	-9.47378
▁thanks	-9.47416
h	-9.47536
▁proper	-9.47624
▁screen	-9.47686
▁watch	-9.47917
▁hey	-9.48266
▁concern	-9.48332
▁require	-9.4834
▁multiple	-9.48351
▁church	-9.48355
▁activity	-9.48599
▁built	-9.48693
▁earth	-9.4894
▁extremely	-9.48965
▁begin	-9.49009
▁pick	-9.49063
▁fall	-9.49076
co	-9.49096
▁critical	-9.49125
▁minus	-9.49147
▁useful	-9.49487
▁met	-9.49722
▁voice	-9.49944
ar	-9.50125
▁writing	-9.50175
▁military	-9.50495
▁shouldn	-9.50564
▁unless	-9.50794
▁efforts	-9.50836
▁expect	-9.50857
▁documents	-9.5089
▁america	-9.50904
▁achieve	-9.51016
▁actions	-9.51119
▁raise	-9.51192
▁break	-9.51439
▁discussed	-9.51761
▁quick	-9.51922
▁sufficient	-9.51958
▁factors	-9.52185
▁element	-9.52417
▁music	-9.52516
▁sound	-9.52554
▁alone	-9.52635
▁likely	-9.52725
▁charge	-9.5275
▁extent	-9.5277
▁freedom	-9.52992
▁organization	-9.53141
an	-9.53158
▁r	-9.53227
ra	-9.53386
ism	-9.53428
▁english	-9.53438
▁independent	-9.53525
▁physical	-9.53665
▁technical	-9.53698
▁meaning	-9.53833
▁majority	-9.53844
▁effort	-9.53856
▁videos	-9.53908
▁procedure	-9.54005
▁phone	-9.54016
▁total	-9.54137
▁internet	-9.54139
▁tool	-9.5419
▁normal	-9.54277
▁color	-9.54364
ion	-9.54526
▁employment	-9.54531
▁bottom	-9.54555
▁computer	-9.54596
▁reference	-9.5469
▁goal	-9.5481
▁safe	-9.54864
▁workers	-9.55336
▁versus	-9.55365
▁filed	-9.55388
▁mention	-9.55549
▁kids	-9.5557
▁developed	-9.55642
▁success	-9.55643
▁determine	-9.55667
▁accept	-9.55805
▁spirit	-9.55847
▁responsible	-9.55849
▁ms	-9.55976
▁agreed	-9.55995
▁seventeen	-9.56093
▁square	-9.56164
▁population	-9.5627
▁ourselves	-9.56369
▁proposed	-9.56391
▁properly	-9.56439
▁john	-9.56507
▁steps	-9.56725
▁feeling	-9.56767
▁box	-9.57037
▁condition	-9.57347
▁summary	-9.57431
▁watching	-9.57432
▁round	-9.5755
▁gas	-9.57617
▁events	-9.57647
▁anyway	-9.57684
▁jurisdiction	-9.57707
▁quote	-9.57802
▁walk	-9.57893
▁lose	-9.57934
▁generally	-9.57939
▁assessment	-9.57994
▁began	-9.58
▁california	-9.58018
▁insurance	-9.58063
▁fun	-9.58267
▁expert	-9.58288
▁foreign	-9.58331
▁presentation	-9.586
▁capacity	-9.58609
less	-9.58746
▁king	-9.58867
▁choice	-9.58868
▁rapporteur	-9.58939
▁existing	-9.58947
▁internal	-9.59064
▁planning	-9.5927
▁hour	-9.59495
▁aren	-9.59549
▁treatment	-9.59639
▁requires	-9.59711
▁recent	-9.59769
▁recently	-9.59829
▁near	-9.5983
▁principle	-9.60016
▁active	-9.60017
▁performance	-9.60048
▁creating	-9.60102
▁pass	-9.60107
▁spend	-9.60136
▁factor	-9.60232
▁turned	-9.604
▁anybody	-9.60435
▁guy	-9.6045
▁regional	-9.60534
▁draw	-9.60572
▁theory	-9.60599
▁listen	-9.60889
▁fourth	-9.60927
▁learned	-9.61022
▁receive	-9.61133
▁places	-9.61215
▁avoid	-9.61391
▁showing	-9.61563
▁established	-9.61791
▁wants	-9.62035
▁construction	-9.6213
ist	-9.62143
▁standing	-9.62222
▁super	-9.62278
▁submit	-9.62367
▁requirements	-9.62415
▁perspective	-9.62441
▁importance	-9.62491
▁duty	-9.62519
▁faith	-9.62613
▁covered	-9.6272
▁fast	-9.62786
▁version	-9.62801
age	-9.62902
▁parents	-9.62961
▁suggest	-9.6297
▁beautiful	-9.63365
▁communication	-9.63589
▁compromise	-9.63687
▁possibility	-9.63742
▁telling	-9.63782
is	-9.63912
▁base	-9.63932
▁method	-9.64141
na	-9.64177
▁individuals	-9.64257
▁contact	-9.6437
▁successful	-9.64563
▁object	-9.64654
▁york	-9.64742
▁title	-9.65032
▁conclusion	-9.6505
▁topic	-9.6506
▁environmental	-9.65244
▁overall	-9.65375
▁image	-9.65375
▁passed	-9.65395
▁truth	-9.65456
▁reality	-9.65511
▁china	-9.65527
▁born	-9.65713
▁none	-9.65726
▁exist	-9.65808
▁forget	-9.65936
▁unfortunately	-9.66068
▁complex	-9.66111
▁income	-9.6613
▁culture	-9.66343
▁provision	-9.6639
▁peace	-9.6658
▁violence	-9.66663
▁transport	-9.66942
▁movement	-9.67038
▁credit	-9.67073
▁shown	-9.67112
▁negotiations	-9.67157
▁missus	-9.67368
▁degree	-9.67407
▁levels	-9.67687
▁immediately	-9.6783
▁email	-9.67937
▁item	-9.6797
▁lines	-9.68052
▁fear	-9.6814
▁respond	-9.68149
▁west	-9.68265
to	-9.68274
▁communities	-9.68509
▁late	-9.68515
el	-9.68647
▁opportunities	-9.68654
▁prove	-9.68758
▁button	-9.68759
▁closed	-9.68891
▁option	-9.69039
▁appreciate	-9.69199
▁path	-9.69207
▁reduce	-9.69273
▁drug	-9.69305
▁becomes	-9.69412
▁proposals	-9.69434
▁perfect	-9.69493
▁books	-9.69538
▁nor	-9.69715
▁assistance	-9.70088
te	-9.7016
ized	-9.70186
▁imagine	-9.70581
▁initial	-9.707
▁playing	-9.7074
▁led	-9.70748
▁administration	-9.70868
▁doubt	-9.70893
▁nobody	-9.70923
▁poor	-9.71017
▁park	-9.71053
ro	-9.71111
▁reform	-9.71257
▁son	-9.71366
▁encourage	-9.71609
▁minister	-9.71729
▁flow	-9.71817
▁moved	-9.71865
▁sit	-9.71893
▁competition	-9.719
▁exchange	-9.71927
▁spent	-9.71927
▁kinds	-9.72094
▁remain	-9.72233
▁enter	-9.72335
▁conversation	-9.7237
▁conflict	-9.72406
▁concept	-9.7241
▁feet	-9.72509
▁wife	-9.72575
▁user	-9.72609
▁weight	-9.72619
▁infrastructure	-9.72687
▁determination	-9.72711
▁sitting	-9.72757
ry	-9.72887
▁loss	-9.73077
▁options	-9.73083
▁billion	-9.73128
▁statements	-9.73139
▁pro	-9.7352
▁river	-9.73569
▁sir	-9.73722
▁oil	-9.73902
▁setting	-9.74123
▁news	-9.74209
▁press	-9.74255
▁officers	-9.74288
son	-9.74307
ie	-9.74445
▁studies	-9.74473
th	-9.74598
▁allows	-9.74649
▁assume	-9.7474
▁connection	-9.74811
ne	-9.74838
▁easier	-9.74923
ge	-9.75052
▁extra	-9.75084
▁count	-9.75161
▁regions	-9.75289
▁track	-9.75339
▁intent	-9.75356
▁background	-9.75382
▁examples	-9.75418
▁recognize	-9.7544
▁speed	-9.75457
▁director	-9.75517
▁madam	-9.75578
▁join	-9.75628
▁reports	-9.75668
▁status	-9.75783
▁external	-9.75809
▁j	-9.76194
▁identify	-9.76291
▁purposes	-9.76403
▁ultimately	-9.76412
▁limit	-9.76433
▁administrative	-9.76443
▁abuse	-9.76529
▁schools	-9.76586
▁produce	-9.76588
▁employees	-9.76663
▁opening	-9.76893
▁skills	-9.76969
▁discretion	-9.7697
▁stress	-9.77086
▁sub	-9.7718
▁presidency	-9.77431
▁behalf	-9.77467
▁select	-9.77473
▁worth	-9.77482
▁sustainable	-9.77633
▁chapter	-9.77688
▁violation	-9.77722
▁argue	-9.77743
▁grow	-9.77759
▁deep	-9.7777
▁providing	-9.77916
one	-9.7796
▁businesses	-9.78008
▁hopefully	-9.7802
▁l	-9.7804
▁aspects	-9.78121
▁failure	-9.78169
▁treaty	-9.78192
▁east	-9.78221
▁drive	-9.78342
▁joint	-9.78433
▁measure	-9.78465
▁arguments	-9.78519
▁consumers	-9.78572
▁aid	-9.78574
▁panel	-9.78618
▁lots	-9.78675
▁principles	-9.78695
▁essential	-9.78767
▁developing	-9.78784
▁named	-9.78826
▁average	-9.78904
▁miss	-9.78911
▁task	-9.79066
▁session	-9.7907
▁families	-9.79074
▁mark	-9.79121
▁carry	-9.79229
▁agreements	-9.79343
▁release	-9.7937
▁patent	-9.79435
▁package	-9.79522
▁represent	-9.79541
▁addressed	-9.7964
▁goals	-9.79692
▁character	-9.79876
▁card	-9.79973
▁fit	-9.79988
▁core	-9.80001
▁border	-9.80204
▁detail	-9.80359
la	-9.80628
▁double	-9.80681
ment	-9.80802
▁scale	-9.80982
▁surface	-9.80984
▁holding	-9.81149
▁sell	-9.8124
▁innovation	-9.81374
▁followed	-9.81413
w	-9.81417
▁travel	-9.81454
▁objective	-9.81528
▁exercise	-9.81577
▁manner	-9.81673
▁records	-9.8172
os	-9.81877
▁consumer	-9.81961
▁located	-9.82076
ization	-9.8208
▁kept	-9.82159
▁dialogue	-9.82344
▁plans	-9.82374
▁committed	-9.82614
▁labor	-9.82636
▁democracy	-9.82649
▁dispute	-9.82773
▁easily	-9.82922
▁substantial	-9.82944
▁software	-9.82965
▁mental	-9.82994
▁minimum	-9.83396
▁speech	-9.83539
▁draft	-9.83624
▁organizations	-9.83781
ted	-9.83791
ia	-9.83864
▁enforcement	-9.83889
▁girl	-9.83916
up	-9.84022
▁teaching	-9.84058
▁prevent	-9.8406
▁requirement	-9.84159
▁dark	-9.84248
▁professional	-9.84274
▁scope	-9.84286
▁regulations	-9.84315
▁failed	-9.84325
▁stated	-9.84497
▁harm	-9.84524
▁petition	-9.8457
▁supply	-9.84585
▁played	-9.84619
▁boy	-9.84621
▁changing	-9.84729
▁immigration	-9.84731
▁clean	-9.84856
▁eat	-9.84856
ma	-9.84933
ty	-9.84987
▁solve	-9.85035
▁wonderful	-9.85061
ian	-9.85089
▁interests	-9.85225
▁includes	-9.85263
▁conference	-9.85266
▁grant	-9.85289
▁provides	-9.8531
▁primary	-9.85378
▁growing	-9.85425
▁film	-9.85458
▁initiative	-9.8549
▁slide	-9.85578
▁wrote	-9.85656
▁partners	-9.85693
▁supported	-9.85824
▁blood	-9.85842
▁continued	-9.86098
ta	-9.86262
▁amazing	-9.86312
▁nation	-9.86354
▁h	-9.86375
sa	-9.86384
▁rise	-9.86393
▁relief	-9.86609
▁focused	-9.86662
▁pull	-9.86676
▁unit	-9.867
▁legislative	-9.8691
▁damage	-9.87037
▁aspect	-9.87049
▁touch	-9.8706
▁youtube	-9.87072
▁details	-9.87102
▁influence	-9.87147
▁except	-9.87198
▁attack	-9.87215
▁broad	-9.87245
ley	-9.8735
▁serve	-9.8742
▁length	-9.8742
▁consistent	-9.87548
▁helpful	-9.87762
▁eye	-9.87803
est	-9.87886
▁prepared	-9.87889
▁thus	-9.87908
it	-9.87935
▁willing	-9.87941
▁materials	-9.88184
▁interpretation	-9.88219
ine	-9.88322
▁station	-9.88349
ting	-9.8835
▁criteria	-9.88377
▁push	-9.88473
▁store	-9.88508
▁somewhere	-9.88529
▁courts	-9.88562
▁seemed	-9.88626
▁agencies	-9.8864
▁solutions	-9.88701
▁web	-9.88866
▁somehow	-9.88948
ate	-9.88954
▁fraud	-9.8902
▁youth	-9.89071
▁bringing	-9.8924
▁commercial	-9.89277
▁folks	-9.89302
▁cited	-9.89391
▁paragraph	-9.89409
▁meant	-9.89503
▁realize	-9.89514
▁unique	-9.89545
▁transfer	-9.89665
▁mission	-9.89691
▁designed	-9.89951
▁star	-9.90007
▁dead	-9.90011
no	-9.90042
▁fish	-9.90104
▁gender	-9.90157
▁pointed	-9.90201
▁understood	-9.90202
ci	-9.90207
▁win	-9.90224
▁guidelines	-9.90236
▁uk	-9.90251
▁provisions	-9.90432
▁transparency	-9.90459
▁matters	-9.90465
▁consideration	-9.90481
▁showed	-9.90534
▁alternative	-9.90556
▁instruments	-9.90625
▁march	-9.90629
▁cell	-9.90684
land	-9.90721
▁wall	-9.90868
▁gun	-9.90874
com	-9.90876
▁sharing	-9.90905
▁items	-9.90971
▁constitutional	-9.91002
▁false	-9.91058
▁views	-9.91163
▁increased	-9.91355
v	-9.91416
▁establish	-9.91426
▁summer	-9.91449
▁platform	-9.9153
▁pain	-9.91612
▁instruction	-9.91644
as	-9.91725
▁species	-9.91748
▁helping	-9.91874
▁shared	-9.91874
▁reached	-9.91916
▁farmers	-9.91993
▁master	-9.92246
▁testified	-9.92359
▁occurred	-9.92423
▁effects	-9.92501
▁totally	-9.92562
▁career	-9.92566
▁regular	-9.92623
▁description	-9.92654
▁produced	-9.92694
▁machine	-9.92734
▁demand	-9.92759
▁submitted	-9.92821
▁sun	-9.92986
▁proof	-9.9306
▁discussions	-9.93108
▁mechanism	-9.93111
▁appear	-9.93207
▁entitled	-9.9321
▁french	-9.9321
▁investigation	-9.93291
▁maintain	-9.93488
▁witness	-9.93561
▁applies	-9.93619
▁published	-9.93921
▁weren	-9.94065
▁mine	-9.94067
▁larger	-9.94068
▁straight	-9.941
▁laws	-9.94129
▁africa	-9.9416
▁phase	-9.94177
▁implement	-9.94184
▁smaller	-9.94393
▁tomorrow	-9.94426
de	-9.94653
▁target	-9.9474
▁google	-9.94825
▁germany	-9.94853
▁german	-9.9491
fa	-9.95012
▁markets	-9.95086
▁determined	-9.95128
▁mass	-9.9527
▁identified	-9.95304
▁features	-9.95389
▁drop	-9.95559
▁christ	-9.95696
▁manage	-9.95777
▁despite	-9.95902
▁former	-9.95925
▁waiting	-9.95959
▁democratic	-9.95971
▁practices	-9.95997
▁whom	-9.96031
▁possibly	-9.96054
led	-9.96081
ga	-9.96194
▁procedures	-9.96301
ter	-9.96323
tic	-9.96338
▁housing	-9.96344
▁visit	-9.96354
▁hi	-9.96516
▁bear	-9.96522
▁whose	-9.96536
il	-9.96616
▁highly	-9.96682
ous	-9.96752
ies	-9.96798
▁distance	-9.96832
▁input	-9.97055
▁dear	-9.97141
▁connected	-9.97162
▁served	-9.97251
▁brother	-9.97281
▁engage	-9.97366
▁meetings	-9.97387
ive	-9.97416
▁experts	-9.97451
▁forms	-9.97461
▁eventually	-9.97669
▁banks	-9.97794
▁recommendations	-9.97952
▁debt	-9.97963
▁priority	-9.9798
▁damages	-9.97998
▁discovery	-9.98046
▁block	-9.98077
▁speaker	-9.98181
ize	-9.98277
▁promote	-9.98361
▁modern	-9.98382
▁election	-9.9842
▁gold	-9.98453
▁entered	-9.98707
▁conviction	-9.98735
▁brain	-9.98777
▁waste	-9.98814
▁commitment	-9.98856
▁knowing	-9.99127
▁vision	-9.99165
▁window	-9.9932
▁forces	-9.99353
▁colleague	-9.99356
▁france	-9.99388
▁factual	-9.99403
▁twentyfive	-9.99486
ful	-9.99609
▁obligation	-9.9972
▁enjoy	-9.99748
based	-9.99748
▁wide	-9.99855
▁map	-9.99864
▁entirely	-9.99868
▁holy	-9.99906
▁findings	-10.0005
▁instrument	-10.0007
ca	-10.0009
▁chief	-10.0018
▁suppose	-10.0025
▁location	-10.0028
▁alright	-10.0029
z	-10.0048
▁dog	-10.0048
▁injury	-10.006
▁copy	-10.0086
▁russia	-10.0107
▁recognized	-10.0108
▁traffic	-10.0113
▁partner	-10.0115
▁official	-10.0118
▁sources	-10.012
ba	-10.0131
▁audience	-10.0132
▁increasing	-10.0134
ke	-10.0146
▁intended	-10.0153
▁talks	-10.0157
▁bigger	-10.0162
▁described	-10.0183
ated	-10.0189
▁stories	-10.0203
da	-10.0204
▁equipment	-10.0212
▁secondly	-10.0213
▁payment	-10.0219
▁affected	-10.0226
▁afternoon	-10.0228
▁tree	-10.0233
▁threat	-10.0252
▁w	-10.026
▁defendants	-10.0289
▁fairly	-10.029
▁introduce	-10.0294
▁opposed	-10.0307
▁anymore	-10.0313
▁hot	-10.0314
▁ok	-10.0324
▁evening	-10.0327
▁remains	-10.0343
▁expression	-10.0368
▁lay	-10.0373
▁anti	-10.0374
▁briefly	-10.0381
ish	-10.0388
men	-10.0404
▁powerful	-10.0406
▁defined	-10.0417
▁exact	-10.0418
▁partnership	-10.042
▁guarantee	-10.0422
▁expected	-10.0426
▁paying	-10.0432
▁express	-10.0434
▁plant	-10.0447
▁etc	-10.0454
▁supporting	-10.0455
ac	-10.0459
▁objectives	-10.046
▁biggest	-10.0466
▁caused	-10.0471
u	-10.0477
▁advantage	-10.0494
▁disease	-10.0496
▁signed	-10.0498
▁sides	-10.0511
▁collection	-10.0513
▁voting	-10.0528
▁died	-10.053
▁liability	-10.0538
▁closely	-10.0542
▁con	-10.0545
▁hair	-10.0548
▁subscribe	-10.0554
▁petitioner	-10.0554
▁shape	-10.056
▁stock	-10.0565
▁operations	-10.0565
▁representative	-10.0572
▁cap	-10.0574
ating	-10.058
▁command	-10.0584
▁association	-10.0587
two	-10.0591
▁device	-10.0598
▁yesterday	-10.06
▁reaction	-10.0614
et	-10.0614
▁season	-10.0618
▁sounds	-10.0621
▁operation	-10.0626
pa	-10.0637
▁wonder	-10.066
▁sentencing	-10.0664
▁users	-10.067
▁signal	-10.0671
▁glad	-10.0686
▁plain	-10.0697
▁affect	-10.0707
▁excellent	-10.0717
▁spoke	-10.0717
▁leadership	-10.0723
▁paul	-10.0725
▁conclude	-10.073
▁clause	-10.0739
▁sales	-10.0741
▁recovery	-10.0749
▁foundation	-10.075
▁seek	-10.0754
▁familiar	-10.0754
▁presence	-10.0756
▁cold	-10.0774
▁distribution	-10.0788
▁remove	-10.0788
▁calling	-10.0791
▁cultural	-10.0799
▁island	-10.0809
per	-10.0815
▁depending	-10.0824
▁spending	-10.0828
der	-10.0833
▁offered	-10.0834
▁chat	-10.0836
▁implemented	-10.0839
li	-10.0859
▁consequences	-10.0863
▁elections	-10.0863
▁bunch	-10.0868
▁literally	-10.0872
▁lady	-10.088
▁popular	-10.0883
▁secretary	-10.0888
▁deliver	-10.0902
▁foot	-10.0907
▁priorities	-10.0909
▁relations	-10.0912
▁hasn	-10.0913
▁excited	-10.0913
▁practical	-10.0915
▁behavior	-10.0922
▁transition	-10.0928
▁z	-10.0942
den	-10.0958
▁agriculture	-10.096
▁helps	-10.0966
▁leading	-10.0969
▁teach	-10.0973
▁volume	-10.0974
▁prime	-10.0975
▁games	-10.0984
▁fees	-10.0985
▁migration	-10.0985
ally	-10.0997
▁pieces	-10.0997
▁helped	-10.1001
▁settlement	-10.1028
▁hospital	-10.1034
lo	-10.1038
▁stick	-10.1053
▁vehicle	-10.106
▁generation	-10.1061
▁equation	-10.1062
▁british	-10.1065
▁consent	-10.1066
ch	-10.1067
▁intelligence	-10.1079
▁concerning	-10.1082
▁scientific	-10.1082
ce	-10.1084
▁refer	-10.1092
▁traditional	-10.1104
▁euro	-10.111
▁fill	-10.1113
▁sleep	-10.1118
▁worse	-10.1119
▁rates	-10.1123
▁careful	-10.113
▁race	-10.1133
▁battle	-10.1137
▁turkey	-10.1137
▁define	-10.114
▁pages	-10.1142
▁drugs	-10.1143
ti	-10.1147
▁army	-10.1168
▁accepted	-10.1171
▁afraid	-10.1178
▁western	-10.1178
▁memory	-10.1186
▁facebook	-10.1188
▁illegal	-10.1194
▁heat	-10.12
▁obvious	-10.1207
▁ruling	-10.1208
▁testing	-10.1221
▁chain	-10.1225
▁employee	-10.1228
▁village	-10.1232
▁evaluation	-10.1236
▁files	-10.1237
▁kill	-10.1238
▁june	-10.1245
▁strategic	-10.1246
▁alleged	-10.1251
ary	-10.1259
mo	-10.1265
▁protected	-10.1274
▁efficient	-10.1276
▁ought	-10.1278
▁concrete	-10.1285
▁fighting	-10.1295
▁patient	-10.1298
▁farm	-10.1303
▁exception	-10.1318
▁relation	-10.1321
▁witnesses	-10.1324
▁kingdom	-10.1325
ul	-10.1325
▁secret	-10.1332
▁daily	-10.1339
▁associated	-10.134
▁thoughts	-10.1346
▁keeping	-10.135
▁die	-10.1353
▁referred	-10.1353
▁carbon	-10.1362
▁advice	-10.1366
▁fifth	-10.1371
▁trouble	-10.1378
▁released	-10.1378
▁compared	-10.1383
▁leaving	-10.14
▁teachers	-10.1422
▁excuse	-10.1429
▁band	-10.1442
▁participate	-10.1442
▁la	-10.1444
ent	-10.145
▁truly	-10.1468
▁hello	-10.147
▁december	-10.147
▁train	-10.1478
▁listening	-10.1485
▁attempt	-10.1485
▁personally	-10.1493
▁brown	-10.1496
▁animal	-10.1497
▁hall	-10.1499
▁recommend	-10.15
▁previously	-10.1501
▁campaign	-10.1517
▁prices	-10.1518
▁approved	-10.1529
▁argued	-10.1535
▁acts	-10.1535
▁operating	-10.1536
▁calls	-10.1537
▁rely	-10.1539
▁washington	-10.1548
▁differences	-10.1568
▁placed	-10.1584
▁sexual	-10.1593
▁lived	-10.1597
▁wind	-10.16
▁thousands	-10.1604
▁leaders	-10.1606
▁offense	-10.1609
▁mostly	-10.1615
▁situations	-10.1617
▁effectively	-10.1622
▁tend	-10.1628
▁granted	-10.1654
▁discussing	-10.1656
▁complicated	-10.1656
▁proceedings	-10.1663
mp	-10.1666
▁prison	-10.1669
▁creation	-10.1673
▁typically	-10.1677
▁dangerous	-10.1682
▁david	-10.1685
hi	-10.1686
▁rich	-10.1687
ping	-10.1691
▁song	-10.1699
▁ended	-10.1703
▁camera	-10.1706
▁dis	-10.1718
▁jump	-10.1719
▁discrimination	-10.1725
▁missing	-10.1726
▁connect	-10.173
▁anywhere	-10.1732
▁managed	-10.1737
▁license	-10.1755
▁january	-10.1756
ant	-10.176
j	-10.1762
▁technologies	-10.1764
▁appears	-10.1767
▁introduced	-10.1794
▁closer	-10.181
fi	-10.1818
▁payments	-10.1826
▁perform	-10.1837
▁married	-10.1838
▁notes	-10.1843
▁driving	-10.1845
▁victim	-10.1849
▁distinction	-10.185
▁answers	-10.1853
do	-10.1853
▁slow	-10.1855
▁husband	-10.1881
▁september	-10.1883
▁sold	-10.1885
▁contribution	-10.1889
▁tells	-10.189
▁monitoring	-10.1897
▁impossible	-10.19
▁constant	-10.1901
▁daughter	-10.1907
▁shot	-10.1907
▁poverty	-10.1912
me	-10.1913
▁ex	-10.1915
▁crucial	-10.1924
▁finish	-10.193
▁issued	-10.1936
▁manager	-10.1938
▁mar	-10.1942
▁contribute	-10.1946
▁efficiency	-10.1948
▁depends	-10.1951
▁animals	-10.1955
▁award	-10.1977
▁facing	-10.1979
▁cities	-10.1982
▁outcome	-10.1987
▁statutory	-10.199
▁opposite	-10.1992
▁coverage	-10.2004
▁sat	-10.2012
▁ongoing	-10.2013
▁confidence	-10.2017
▁governments	-10.2039
▁slightly	-10.2043
▁database	-10.2043
ur	-10.2048
▁disagree	-10.2059
▁highest	-10.206
▁engaged	-10.2062
▁rock	-10.2063
▁saint	-10.2065
▁temperature	-10.2067
▁warrant	-10.2081
▁methods	-10.2081
▁variety	-10.2084
▁teacher	-10.2088
▁throw	-10.2088
▁regards	-10.2093
▁whenever	-10.2102
▁dream	-10.2119
▁victims	-10.2137
▁structural	-10.2151
▁nuclear	-10.2158
▁denied	-10.217
▁correctly	-10.2174
▁affairs	-10.2185
▁style	-10.2186
▁patients	-10.2186
▁stability	-10.2188
▁belmont	-10.2196
▁normally	-10.2196
▁prejudice	-10.22
▁institution	-10.2208
▁gap	-10.2209
▁brings	-10.2211
▁resource	-10.2211
ha	-10.2215
▁guilty	-10.2215
▁integration	-10.2216
▁recall	-10.2218
▁maximum	-10.2218
▁till	-10.2223
▁feature	-10.2225
▁answered	-10.2242
▁handle	-10.2258
▁finance	-10.2263
▁tonight	-10.2268
▁adopt	-10.228
▁greece	-10.2284
▁worry	-10.2289
▁instructions	-10.2289
▁heavy	-10.229
▁herself	-10.2293
▁plea	-10.2297
▁names	-10.2298
mer	-10.2298
▁bodies	-10.2299
▁pen	-10.23
▁judicial	-10.2301
▁reply	-10.2302
▁returned	-10.2307
▁portion	-10.2308
▁bed	-10.2312
▁cohesion	-10.232
▁explained	-10.2327
▁underlying	-10.2328
▁sale	-10.2328
▁nearly	-10.2328
▁scheme	-10.2329
▁app	-10.2337
▁african	-10.2344
▁employer	-10.2346
▁apart	-10.2357
▁girls	-10.2364
▁strength	-10.2366
▁plaintiffs	-10.237
▁limitations	-10.2389
▁convention	-10.2393
▁honors	-10.2395
▁linked	-10.2396
▁emergency	-10.2398
ad	-10.2401
▁opened	-10.2405
▁seeking	-10.2408
▁neither	-10.2415
▁noted	-10.2418
▁root	-10.2435
▁executive	-10.2442
▁net	-10.245
▁customers	-10.245
▁spring	-10.2452
▁cash	-10.2462
▁walking	-10.2465
▁potentially	-10.2466
▁october	-10.2468
▁becoming	-10.247
▁component	-10.2471
▁april	-10.2497
▁ball	-10.2497
▁century	-10.2515
▁smart	-10.2517
▁borders	-10.2518
▁pleased	-10.2533
▁facility	-10.2536
▁divided	-10.2547
▁mandate	-10.2552
▁mistake	-10.2558
▁governance	-10.2563
▁ladies	-10.2565
▁older	-10.2575
▁somewhat	-10.2575
▁voted	-10.2578
line	-10.2584
▁forest	-10.2589
▁brand	-10.2591
▁frame	-10.2599
▁starts	-10.2601
▁suggested	-10.2606
▁catch	-10.2612
▁links	-10.2612
▁taxes	-10.2613
▁carefully	-10.2622
▁lawyer	-10.2624
▁match	-10.2633
▁proud	-10.2638
▁asylum	-10.2641
▁contrary	-10.2644
▁figures	-10.2646
▁spread	-10.2648
▁proceeding	-10.2651
▁journey	-10.266
go	-10.2668
▁fix	-10.267
▁aside	-10.2684
▁arrest	-10.2688
ard	-10.2698
▁largest	-10.2704
▁cancer	-10.2705
▁killed	-10.2705
way	-10.2707
▁roll	-10.2713
▁club	-10.2718
▁july	-10.2722
▁functions	-10.2733
▁indicated	-10.2738
by	-10.274
id	-10.274
▁stopped	-10.2753
▁marriage	-10.2758
▁pattern	-10.2759
▁financing	-10.2767
▁models	-10.2767
▁turning	-10.277
▁reduction	-10.2774
▁remote	-10.2779
▁favorite	-10.2785
▁bankruptcy	-10.2793
▁agent	-10.2798
▁baby	-10.2798
▁spot	-10.2799
▁clients	-10.2807
▁qualified	-10.2812
▁academic	-10.2813
▁cloud	-10.2823
▁q	-10.2828
out	-10.283
▁proceed	-10.284
▁whereas	-10.2843
▁se	-10.2851
▁shift	-10.2855
▁programme	-10.2858
▁ma	-10.2861
ped	-10.2861
▁credibility	-10.2869
▁feedback	-10.2869
lin	-10.2874
▁defend	-10.2875
▁exists	-10.2876
▁domestic	-10.2877
ni	-10.2886
▁adding	-10.2892
▁trees	-10.2895
▁repeat	-10.2895
▁acting	-10.2897
▁applications	-10.2898
▁processes	-10.2906
▁default	-10.2906
▁uses	-10.2909
▁treated	-10.2911
▁origin	-10.2915
▁layer	-10.2918
▁honest	-10.2925
▁professor	-10.2925
▁november	-10.2927
ner	-10.294
▁articles	-10.2944
▁removed	-10.2946
▁owner	-10.295
▁solid	-10.295
▁pi	-10.2964
▁allegations	-10.2967
▁italy	-10.2971
▁annual	-10.2972
▁feed	-10.299
▁arm	-10.2991
▁players	-10.2995
▁finished	-10.3002
▁leader	-10.3009
▁twice	-10.302
▁san	-10.3021
▁religious	-10.3025
▁arms	-10.3035
▁narrow	-10.3047
ol	-10.3051
▁seat	-10.3051
▁schedule	-10.3057
▁considering	-10.3057
▁suddenly	-10.3064
▁believed	-10.3069
▁represented	-10.3071
▁labour	-10.3076
▁substance	-10.3082
▁soul	-10.31
▁participation	-10.3109
▁gentlemen	-10.3109
▁murder	-10.3121
ler	-10.3137
▁sex	-10.3148
▁shadow	-10.3148
▁nations	-10.3154
▁ran	-10.3154
▁delay	-10.3159
▁stood	-10.3161
▁arbitration	-10.3165
▁fell	-10.3167
ir	-10.3171
▁secure	-10.3183
▁classes	-10.3194
ee	-10.3209
▁comprehensive	-10.3214
▁gain	-10.3216
▁allowing	-10.3218
▁lake	-10.3226
▁inter	-10.3228
▁fiscal	-10.3233
pe	-10.3235
sh	-10.3246
▁fishing	-10.3252
▁treat	-10.3252
ig	-10.3254
▁electronic	-10.3256
▁invest	-10.3265
▁skin	-10.3283
▁occur	-10.329
am	-10.3294
▁remind	-10.3298
▁survey	-10.3308
▁units	-10.331
▁merits	-10.3328
▁soil	-10.3329
▁powers	-10.3335
▁apparently	-10.3349
▁london	-10.3349
▁industrial	-10.335
▁creative	-10.3355
▁permit	-10.336
▁advanced	-10.3366
▁identity	-10.3367
▁admitted	-10.3377
ber	-10.3387
▁broken	-10.3392
▁multi	-10.3398
▁entry	-10.3401
▁ship	-10.3406
▁guide	-10.3428
▁images	-10.3468
▁scene	-10.347
▁americans	-10.3471
▁declaration	-10.3493
▁seriously	-10.3497
vo	-10.3501
▁miles	-10.3502
▁texas	-10.3506
▁reflect	-10.3509
▁fixed	-10.3513
▁forced	-10.3515
▁solidarity	-10.3544
▁objection	-10.3544
▁peter	-10.3544
▁iraq	-10.3547
▁describe	-10.3548
▁achieved	-10.355
▁combination	-10.3556
▁appeared	-10.3565
▁update	-10.3568
▁corner	-10.3573
be	-10.3579
▁output	-10.3582
▁host	-10.3583
▁author	-10.3613
▁healthy	-10.3618
▁vice	-10.362
▁expensive	-10.3622
▁india	-10.3624
▁eastern	-10.3626
▁disability	-10.3627
▁arguing	-10.3631
▁northern	-10.3631
▁grade	-10.3637
▁regulatory	-10.3639
▁agricultural	-10.3655
▁fellow	-10.3657
▁reserve	-10.3667
▁category	-10.367
▁compare	-10.3675
▁litigation	-10.3694
▁mode	-10.3695
▁rose	-10.3698
▁politics	-10.3701
▁crazy	-10.3708
▁edge	-10.3708
▁causes	-10.371
▁explanation	-10.3712
▁continuing	-10.3714
▁leads	-10.3715
▁focusing	-10.3723
▁speakers	-10.3736
▁wood	-10.3742
▁rural	-10.3748
▁chinese	-10.3754
▁closing	-10.3759
▁fuel	-10.3761
▁bridge	-10.3768
▁recognition	-10.3772
▁reported	-10.3775
▁turns	-10.3784
▁contracts	-10.3797
▁dealt	-10.38
▁strongly	-10.3801
▁loan	-10.3807
▁originally	-10.3818
▁regardless	-10.3826
▁grand	-10.3829
▁valid	-10.383
▁representatives	-10.3842
▁toward	-10.3849
▁onto	-10.3849
▁prepare	-10.385
▁stronger	-10.3857
▁greek	-10.3858
▁constitution	-10.3859
▁assets	-10.3865
▁sets	-10.3877
▁split	-10.388
▁perfectly	-10.3881
▁suffering	-10.3897
▁customer	-10.3906
▁player	-10.3908
▁difficulties	-10.3908
▁variable	-10.3914
▁gotten	-10.3917
▁expressed	-10.3925
▁properties	-10.3926
▁danger	-10.3928
▁bound	-10.3932
▁via	-10.3943
▁plants	-10.3948
▁purchase	-10.3953
▁extension	-10.396
at	-10.3961
▁sample	-10.3964
▁initially	-10.3964
ability	-10.3972
▁yellow	-10.3972
▁august	-10.3979
▁promise	-10.3983
▁gentleman	-10.3985
▁diversity	-10.3988
▁selling	-10.3989
▁devices	-10.3995
kin	-10.4004
▁completed	-10.4005
▁register	-10.4006
▁organized	-10.4008
▁bright	-10.4008
▁recommendation	-10.4009
▁flat	-10.4013
▁hurt	-10.4015
▁hate	-10.4015
▁southern	-10.4023
▁charged	-10.4033
▁immunity	-10.4035
▁drawing	-10.4041
▁strengthen	-10.4043
▁waiver	-10.4043
▁dollar	-10.4068
▁switch	-10.407
▁minor	-10.407
▁differently	-10.4073
▁radio	-10.4084
▁citizen	-10.4084
izing	-10.4085
ny	-10.4087
▁wave	-10.4088
▁opinions	-10.4098
▁rid	-10.4099
ka	-10.41
▁permanent	-10.4105
▁addressing	-10.412
ten	-10.412
ities	-10.4133
▁england	-10.4142
▁refugees	-10.4144
▁relatively	-10.4149
▁listed	-10.4155
▁pleasure	-10.4158
ham	-10.417
▁components	-10.4174
▁introduction	-10.418
▁informed	-10.4184
um	-10.4195
▁improvement	-10.4197
▁representation	-10.4205
▁equality	-10.4208
▁sister	-10.4213
ger	-10.4214
▁limits	-10.4217
▁initiatives	-10.422
▁interview	-10.4232
▁approval	-10.4235
▁firm	-10.4237
▁strange	-10.4237
▁column	-10.4238
▁stream	-10.4239
▁hill	-10.4245
▁estate	-10.4249
▁elected	-10.4253
▁mobile	-10.4253
▁skill	-10.4258
▁applying	-10.4265
▁zone	-10.4266
▁cars	-10.4277
▁bible	-10.428
▁detailed	-10.4281
op	-10.4295
▁flexibility	-10.4302
▁desire	-10.4314
▁risks	-10.4324
▁micro	-10.4327
▁trading	-10.4333
▁frankly	-10.4342
▁revenue	-10.4344
▁advance	-10.4348
▁winter	-10.4355
▁reverse	-10.436
▁experiences	-10.4368
se	-10.4369
▁marketing	-10.4384
▁division	-10.4385
▁reporting	-10.4391
all	-10.4391
▁laid	-10.4395
▁remand	-10.4412
min	-10.4415
▁fisheries	-10.4424
▁snow	-10.4427
▁formal	-10.4431
▁spain	-10.4431
▁bell	-10.444
▁em	-10.4444
▁canada	-10.4445
▁mo	-10.4446
▁mainly	-10.445
▁christian	-10.4472
▁existence	-10.4479
▁humanitarian	-10.4486
▁horse	-10.4495
▁letters	-10.4504
▁el	-10.4505
▁counter	-10.4509
▁reduced	-10.4515
▁facilities	-10.4521
▁spanish	-10.4525
▁ordinary	-10.453
▁collective	-10.4534
▁aim	-10.4538
▁planet	-10.4554
ding	-10.4556
▁wondering	-10.4563
▁buildings	-10.4565
▁load	-10.4567
pi	-10.457
▁automatically	-10.458
▁fashion	-10.4584
▁february	-10.4584
▁senate	-10.4588
▁remedy	-10.4589
▁ice	-10.4593
▁sum	-10.4595
▁institute	-10.4603
▁numerous	-10.4616
▁comfortable	-10.4616
▁breach	-10.4616
▁discovered	-10.4616
▁noticed	-10.4634
▁sectors	-10.4635
▁millions	-10.4637
▁everywhere	-10.464
▁engagement	-10.4642
▁grew	-10.4652
▁competitive	-10.4654
▁generate	-10.4657
▁guidance	-10.4658
▁fresh	-10.4658
▁continues	-10.466
▁joined	-10.466
▁twentyfour	-10.4664
▁verse	-10.4674
ance	-10.4679
▁ban	-10.4684
▁structures	-10.4692
▁awareness	-10.4698
▁stands	-10.4699
▁cast	-10.4699
▁forum	-10.4699
▁coast	-10.4704
▁print	-10.4706
▁notion	-10.4711
▁mouth	-10.4715
▁primarily	-10.4718
wa	-10.4722
▁fee	-10.4726
▁neighborhood	-10.4731
▁relationships	-10.4733
▁contains	-10.4742
▁format	-10.4742
▁cycle	-10.4749
▁conspiracy	-10.4752
▁cells	-10.4758
▁resolve	-10.4759
▁dry	-10.4769
bo	-10.4773
▁wild	-10.4775
▁positions	-10.4777
▁twentyone	-10.4784
▁wow	-10.4785
▁transaction	-10.4791
▁possession	-10.4795
▁filled	-10.48
▁bond	-10.48
▁leaves	-10.4804
▁fields	-10.4805
▁bought	-10.4818
▁sensitive	-10.4819
▁operate	-10.4823
ak	-10.4824
▁vital	-10.483
▁topics	-10.4836
▁collect	-10.4842
▁trump	-10.4843
▁server	-10.4845
ier	-10.4846
three	-10.4847
▁james	-10.4862
▁seconds	-10.4866
un	-10.4869
▁enable	-10.4877
▁chose	-10.4902
▁queen	-10.4918
▁caught	-10.4929
▁chamber	-10.4941
▁privacy	-10.4942
que	-10.4946
▁driver	-10.4949
▁episode	-10.4949
▁windows	-10.4951
▁shop	-10.4952
▁extreme	-10.4953
▁pictures	-10.4955
▁highlight	-10.4959
▁guard	-10.4966
▁binding	-10.4968
mi	-10.4977
▁pool	-10.4987
▁terrible	-10.5007
▁ninth	-10.5007
▁concluded	-10.5011
▁soft	-10.5022
▁profit	-10.5024
▁ireland	-10.5025
▁fail	-10.5028
▁percentage	-10.5032
▁album	-10.5039
▁accident	-10.504
▁appeals	-10.5044
▁coordination	-10.5047
▁noise	-10.5054
▁yield	-10.5055
ship	-10.506
▁persons	-10.5064
▁removal	-10.5071
▁conclusions	-10.5072
▁awesome	-10.5074
▁languages	-10.5111
▁storage	-10.5113
▁prosecutor	-10.513
▁improved	-10.513
▁compliance	-10.5132
▁taught	-10.5142
ring	-10.5148
▁absolute	-10.515
▁mom	-10.5151
▁lesson	-10.5152
▁realized	-10.5158
▁famous	-10.516
▁russian	-10.5162
▁indicate	-10.5163
▁opposition	-10.5166
▁smes	-10.5167
▁circle	-10.517
▁broader	-10.5176
▁dimension	-10.5177
▁longterm	-10.518
▁papers	-10.5182
▁controls	-10.5197
im	-10.5213
▁difficulty	-10.5215
▁heaven	-10.522
▁greatest	-10.5229
▁trip	-10.5234
▁movie	-10.5237
▁belief	-10.5249
▁precisely	-10.5251
▁remaining	-10.5256
▁camp	-10.5257
▁directed	-10.5258
▁expand	-10.5258
off	-10.5264
▁sanctions	-10.527
▁sight	-10.527
▁domain	-10.5278
▁israel	-10.5284
▁faculty	-10.529
▁educational	-10.5293
▁mid	-10.53
▁strategies	-10.5301
▁sin	-10.5304
▁mix	-10.5304
▁loved	-10.5305
▁extend	-10.5309
▁lie	-10.531
▁officials	-10.5322
▁massive	-10.5336
▁prosecution	-10.5339
▁valuable	-10.534
▁invite	-10.5345
▁wear	-10.5345
▁vehicles	-10.5351
▁george	-10.5352
▁spoken	-10.5358
▁faster	-10.5359
▁cat	-10.5362
▁regime	-10.5371
▁acknowledge	-10.5373
▁teams	-10.5375
▁charges	-10.5377
▁download	-10.5377
▁accessible	-10.5383
▁recording	-10.5396
▁degrees	-10.54
▁weapons	-10.5406
▁monitor	-10.5417
we	-10.5422
▁sweet	-10.543
▁drawn	-10.543
▁oral	-10.5431
▁constantly	-10.5432
clock	-10.5434
▁reforms	-10.5438
▁equals	-10.5442
▁sky	-10.5451
▁sites	-10.5454
▁homes	-10.5462
▁native	-10.547
▁illinois	-10.5473
▁demonstrate	-10.5479
▁integrated	-10.5482
▁offering	-10.5491
▁implementing	-10.5493
▁assuming	-10.5497
▁investments	-10.55
▁profile	-10.5505
▁receiving	-10.5506
▁port	-10.5506
▁bus	-10.5506
▁nevertheless	-10.551
▁impression	-10.5522
dy	-10.5523
▁unemployment	-10.5526
▁involve	-10.5527
▁worst	-10.5531
▁assess	-10.5533
▁resistance	-10.5535
▁referring	-10.5539
▁adequate	-10.555
▁parking	-10.5554
▁transportation	-10.5557
▁sending	-10.5559
▁mountain	-10.556
▁appellant	-10.557
▁row	-10.557
▁campus	-10.5572
▁pop	-10.558
han	-10.5589
▁smith	-10.5591
▁suit	-10.5598
▁feels	-10.5599
▁graph	-10.5599
▁ukraine	-10.5604
▁religion	-10.5607
▁beat	-10.5612
▁bo	-10.5612
▁crimes	-10.562
▁formula	-10.5621
▁obtain	-10.5636
▁weather	-10.5638
▁tackle	-10.5643
▁banking	-10.5644
▁bio	-10.5651
▁sick	-10.5651
po	-10.5653
▁lab	-10.5656
▁audio	-10.566
▁commit	-10.5664
▁improving	-10.5666
▁attached	-10.5668
▁engineering	-10.5669
▁sand	-10.5679
▁incident	-10.5681
▁precedent	-10.5682
fer	-10.5684
▁senior	-10.5687
▁historical	-10.5692
▁strike	-10.5702
▁stakeholders	-10.5708
▁communicate	-10.5713
▁challenging	-10.5715
▁upper	-10.5719
▁accurate	-10.5719
▁expertise	-10.5725
▁immediate	-10.5731
▁residents	-10.5733
cc	-10.5738
ron	-10.5741
wood	-10.5747
▁chart	-10.5752
▁ho	-10.5755
ah	-10.5763
▁captain	-10.5776
▁quarter	-10.578
▁australia	-10.5797
▁female	-10.5804
▁gotta	-10.5809
▁tab	-10.5817
▁mary	-10.582
▁buying	-10.5837
▁testify	-10.5839
▁surprised	-10.5841
cur	-10.5848
▁falls	-10.5849
▁amended	-10.585
ex	-10.5856
▁ka	-10.5867
▁slowly	-10.5872
▁accounts	-10.5874
▁random	-10.5885
▁importantly	-10.5885
▁log	-10.589
field	-10.5891
▁controlled	-10.5891
▁tough	-10.5899
tin	-10.59
▁boat	-10.5908
▁afterwards	-10.5913
ville	-10.5913
▁phrase	-10.5915
▁fault	-10.5925
io	-10.5927
▁po	-10.5929
▁statistics	-10.5931
▁metal	-10.5931
▁pan	-10.5933
▁moral	-10.5936
▁ocean	-10.5941
▁scenario	-10.5942
▁overcome	-10.5945
ut	-10.5947
▁dismiss	-10.5948
▁pursue	-10.5964
▁copyright	-10.5967
▁raising	-10.5969
▁attacks	-10.597
▁merely	-10.5974
▁mc	-10.5979
▁sixth	-10.5981
▁cards	-10.5984
▁relied	-10.5987
▁legitimate	-10.5989
▁drink	-10.5992
▁fan	-10.5994
▁corruption	-10.5997
▁obligations	-10.6007
▁glass	-10.6009
▁threshold	-10.6009
▁hat	-10.601
▁indian	-10.6017
▁michael	-10.602
▁appearance	-10.6023
▁parallel	-10.6036
▁experienced	-10.6037
▁rain	-10.6044
ri	-10.6047
ists	-10.6053
ps	-10.6056
▁propose	-10.6056
▁mrs	-10.6062
▁lies	-10.6066
▁bag	-10.6081
▁ring	-10.6093
▁extended	-10.6093
▁ghost	-10.6098
▁route	-10.6106
▁corporate	-10.6118
▁mandatory	-10.6123
▁emissions	-10.6128
▁procedural	-10.6133
▁mayor	-10.6146
lan	-10.6151
▁stone	-10.6152
▁display	-10.6153
▁weird	-10.6158
▁mechanisms	-10.6159
▁voluntary	-10.6168
▁eating	-10.6175
▁doctrine	-10.6179
▁van	-10.6179
▁probable	-10.6185
▁tests	-10.6189
▁suffer	-10.6193
▁examination	-10.6193
▁probability	-10.6195
▁losing	-10.6195
▁replace	-10.6205
▁medicine	-10.6207
▁surprise	-10.6212
▁valley	-10.6212
▁depend	-10.6213
▁objects	-10.6215
▁terrorism	-10.6217
▁creates	-10.6218
▁filing	-10.6219
▁platforms	-10.6225
▁sports	-10.6233
▁ensuring	-10.6238
▁explore	-10.6243
▁pair	-10.6245
▁equally	-10.6247
▁recorded	-10.6263
▁sorts	-10.6279
oc	-10.6283
▁worship	-10.6287
ial	-10.6288
▁saved	-10.629
▁parent	-10.6304
▁stuck	-10.6304
ise	-10.6305
▁medium	-10.6307
▁da	-10.6314
▁florida	-10.6314
▁independence	-10.6317
▁sad	-10.6321
▁grounds	-10.6325
▁decades	-10.6337
▁requested	-10.634
▁garden	-10.6341
▁warm	-10.6345
▁unfair	-10.6345
▁exciting	-10.6349
bi	-10.6351
▁frequency	-10.6361
▁networks	-10.6362
▁programming	-10.6365
▁shut	-10.6369
les	-10.6376
▁electric	-10.6379
time	-10.638
▁ordered	-10.638
▁inquiry	-10.6381
▁formed	-10.6383
▁ambitious	-10.6389
▁prince	-10.639
▁mis	-10.6392
▁tech	-10.6395
▁vulnerable	-10.6396
▁engine	-10.6402
▁tip	-10.6403
▁usual	-10.6404
▁infringement	-10.6408
▁processing	-10.6412
▁possibilities	-10.6413
▁picked	-10.6422
▁robert	-10.6422
▁similarly	-10.6428
▁twentytwo	-10.6432
▁afford	-10.6432
▁moon	-10.6438
▁mexico	-10.6439
▁relative	-10.6445
▁protecting	-10.6447
▁votes	-10.647
▁comply	-10.6471
▁grateful	-10.6477
▁urge	-10.6481
▁television	-10.6483
▁penalty	-10.6483
▁conducted	-10.6496
▁stable	-10.6499
▁amongst	-10.65
▁jail	-10.6503
▁fly	-10.6503
▁lessons	-10.6505
ph	-10.6518
▁sequence	-10.652
▁museum	-10.6526
▁paris	-10.6528
▁represents	-10.6534
▁worried	-10.6536
▁involving	-10.6537
▁chosen	-10.6544
▁resolved	-10.6548
▁ko	-10.6551
▁joy	-10.6551
ster	-10.6552
▁italian	-10.6569
▁centre	-10.6574
▁boys	-10.6576
▁math	-10.6577
▁interface	-10.6585
▁faced	-10.6589
▁satisfied	-10.6592
▁plastic	-10.6595
▁export	-10.6599
▁republic	-10.6602
▁transparent	-10.6603
▁suggesting	-10.6606
▁johnson	-10.6608
back	-10.6609
▁clarify	-10.6615
▁urban	-10.6622
▁adult	-10.6624
▁heads	-10.6625
▁consensus	-10.6626
▁tape	-10.6634
▁actors	-10.6635
▁unable	-10.6636
za	-10.6637
▁bay	-10.6641
▁joining	-10.6644
▁capable	-10.6645
▁tv	-10.6648
▁virtual	-10.6651
▁performed	-10.6656
con	-10.666
gra	-10.6661
▁fruit	-10.6668
▁truck	-10.6673
▁participants	-10.6686
four	-10.6689
▁angle	-10.6689
▁visual	-10.669
▁mixed	-10.6699
the	-10.6702
▁japan	-10.6707
▁briefing	-10.6708
▁launch	-10.6712
▁governor	-10.6726
▁prefer	-10.6727
▁convinced	-10.6727
▁struggle	-10.6727
▁meat	-10.6731
▁label	-10.6732
▁va	-10.6735
▁compensation	-10.6738
ana	-10.674
▁runs	-10.6749
▁legislature	-10.675
▁branch	-10.6751
▁sought	-10.6752
▁na	-10.6764
▁loop	-10.6767
▁emotional	-10.6768
ology	-10.6775
▁apple	-10.6778
▁twentyseven	-10.6778
▁intention	-10.678
▁universal	-10.678
▁entity	-10.678
▁impose	-10.6782
▁flight	-10.6786
va	-10.679
▁errors	-10.679
▁milk	-10.6796
▁chemical	-10.6813
▁sudden	-10.6813
▁wealth	-10.6814
▁categories	-10.6815
▁vi	-10.6815
▁evil	-10.6821
▁index	-10.6823
▁honestly	-10.6827
ep	-10.6829
▁journal	-10.6831
▁offers	-10.6836
▁assembly	-10.6837
▁targets	-10.6842
▁approximately	-10.6853
▁comparison	-10.6859
▁menu	-10.6863
▁birth	-10.6869
▁inform	-10.6871
▁signs	-10.6873
▁reviewed	-10.6874
▁emphasize	-10.6885
gi	-10.6885
▁trend	-10.6885
▁enjoyed	-10.6888
▁secondary	-10.689
▁disclosure	-10.6897
▁brussels	-10.6904
▁di	-10.6906
▁principal	-10.6913
▁depth	-10.6916
▁arrived	-10.6927
▁selected	-10.6927
▁pilot	-10.6935
▁empty	-10.6944
▁iran	-10.6954
▁matrix	-10.6957
ot	-10.6961
▁concentration	-10.6961
▁verdict	-10.6962
so	-10.6963
▁coffee	-10.6965
▁photo	-10.6966
▁solar	-10.6971
▁passing	-10.6975
▁ultimate	-10.6977
▁remarks	-10.6985
▁supports	-10.6995
▁calculate	-10.6997
▁severe	-10.7001
▁duties	-10.7002
▁dismissed	-10.7002
▁absence	-10.7011
▁imposed	-10.7014
▁christmas	-10.7017
▁plenty	-10.7018
▁bi	-10.7018
▁pray	-10.7019
su	-10.702
▁gift	-10.7035
▁colors	-10.7036
ford	-10.7045
▁enemy	-10.7051
▁fat	-10.7055
▁elsewhere	-10.7057
▁carrying	-10.7057
▁disabilities	-10.7061
▁contributions	-10.7066
ned	-10.7072
▁walked	-10.7074
▁suggestion	-10.7076
▁hoping	-10.708
▁admit	-10.7083
sta	-10.7091
▁evaluate	-10.7093
▁characters	-10.7103
▁operational	-10.7112
▁significantly	-10.7113
▁choices	-10.7114
▁twitter	-10.7115
▁applicable	-10.7126
▁mobility	-10.7134
▁friday	-10.7136
▁exclusion	-10.7141
ug	-10.7141
▁equivalent	-10.7143
▁plane	-10.7146
▁trans	-10.7148
▁institutional	-10.7152
▁kid	-10.7159
ile	-10.7163
▁requests	-10.7164
let	-10.7171
▁blind	-10.7173
▁divide	-10.7175
ence	-10.7184
▁lu	-10.7188
ob	-10.7193
side	-10.7194
▁intervention	-10.7196
▁rare	-10.7199
▁football	-10.7204
▁mutual	-10.721
he	-10.721
▁owned	-10.7211
▁affidavit	-10.7213
▁typical	-10.7213
▁territory	-10.7214
▁reducing	-10.7215
▁pension	-10.7221
▁involves	-10.7221
▁novel	-10.7223
▁threats	-10.723
▁contain	-10.7232
▁cite	-10.7233
▁senator	-10.7244
▁escape	-10.7249
▁experiment	-10.7251
▁temporary	-10.7254
▁announced	-10.7257
▁tea	-10.726
▁discharge	-10.7265
▁houses	-10.7265
▁weapon	-10.7269
▁seventh	-10.7269
▁libraries	-10.7277
▁hadn	-10.7282
▁assignment	-10.7284
▁scientists	-10.7285
q	-10.7286
▁ignore	-10.7292
▁pure	-10.7293
▁ideal	-10.7296
▁observed	-10.7311
▁selection	-10.7315
tro	-10.7321
▁summit	-10.7322
ki	-10.7326
ative	-10.7332
▁socalled	-10.7342
▁curious	-10.7345
▁busy	-10.7346
▁judges	-10.7347
▁younger	-10.7351
▁plot	-10.7353
tra	-10.7355
▁remained	-10.7371
responsibilities	-10.7372
▁replied	-10.7374
▁hang	-10.7376
▁dependent	-10.738
▁weak	-10.7383
▁charter	-10.7384
▁messages	-10.7393
▁audit	-10.7397
▁conversations	-10.7403
▁lawsuit	-10.7405
▁reasonably	-10.7405
cy	-10.7408
▁fantastic	-10.7409
▁sustainability	-10.7411
▁combat	-10.7413
▁involvement	-10.7416
▁relates	-10.7422
▁transcript	-10.7422
▁frequently	-10.7428
di	-10.743
▁podcast	-10.7432
▁subsequent	-10.7433
▁invited	-10.7435
▁rail	-10.744
▁exposure	-10.7442
▁alive	-10.7443
ya	-10.7444
▁representing	-10.7445
▁eighth	-10.7461
▁permission	-10.7463
work	-10.7466
▁cutting	-10.7471
▁savings	-10.7474
▁increases	-10.7479
▁suffered	-10.7479
ey	-10.7493
ow	-10.7496
▁delta	-10.75
qui	-10.7502
▁steel	-10.7503
▁adoption	-10.7506
▁clinical	-10.7507
▁amounts	-10.7527
▁league	-10.7531
▁euros	-10.7533
fe	-10.7533
▁serving	-10.7538
▁visible	-10.7551
▁delegation	-10.7557
ite	-10.7561
ain	-10.7564
ward	-10.7567
▁ends	-10.7569
▁male	-10.7574
▁assault	-10.758
▁convicted	-10.7587
▁confusion	-10.7602
▁flag	-10.7611
▁largely	-10.7618
▁mac	-10.7618
▁researchers	-10.7626
▁commerce	-10.7628
▁committees	-10.7628
▁lisbon	-10.7639
▁improvements	-10.7639
▁constructive	-10.764
▁besides	-10.7646
▁liberal	-10.765
▁thomas	-10.7667
▁squared	-10.7671
▁unusual	-10.7671
▁abstention	-10.7677
▁reaching	-10.7681
▁lecture	-10.7683
▁relate	-10.7688
▁hell	-10.7694
▁funny	-10.7703
▁ownership	-10.7716
▁ha	-10.7716
▁forever	-10.7717
▁relating	-10.7728
▁syria	-10.7733
▁deposition	-10.7737
▁indication	-10.7739
▁monday	-10.774
▁mm	-10.7741
▁appellate	-10.775
▁defence	-10.7764
▁expectations	-10.7765
lar	-10.7776
▁poland	-10.7778
▁collaboration	-10.778
▁sugar	-10.7781
bu	-10.7781
▁mmhmm	-10.7783
▁taste	-10.7791
ck	-10.7793
▁assistant	-10.7806
▁hundreds	-10.781
▁orders	-10.7821
▁analyze	-10.7824
▁revolution	-10.7825
▁auto	-10.7826
▁suggests	-10.7828
net	-10.783
▁marine	-10.7837
▁ordinance	-10.7839
▁universe	-10.7857
▁dedicated	-10.7858
▁injunction	-10.786
▁react	-10.7865
▁zoom	-10.7867
ai	-10.7872
▁vast	-10.7872
▁score	-10.7876
▁frank	-10.7877
▁studied	-10.788
▁quiet	-10.7885
▁tasks	-10.7889
▁latest	-10.789
▁warning	-10.7901
▁airport	-10.7905
▁dance	-10.7907
▁unknown	-10.7909
▁royal	-10.791
ium	-10.7911
▁wherever	-10.7911
▁ministers	-10.7912
▁passage	-10.7915
▁cried	-10.7922
▁preserve	-10.7927
ised	-10.7933
▁module	-10.7938
▁iron	-10.7961
▁wanna	-10.7969
▁refused	-10.7971
▁missed	-10.7971
ble	-10.7973
▁wheel	-10.7976
▁beauty	-10.7978
▁wake	-10.7986
▁pulled	-10.7995
▁classroom	-10.8001
▁struck	-10.8001
▁investors	-10.8005
▁appointed	-10.8006
▁stars	-10.8007
▁incredible	-10.8012
▁uniform	-10.8013
▁plenary	-10.8015
▁surrounding	-10.8017
▁eligible	-10.802
▁balanced	-10.8021
▁twentythree	-10.8023
▁maintenance	-10.8026
▁pin	-10.8027
▁dad	-10.8029
▁delivery	-10.8038
▁capture	-10.8039
▁credible	-10.8041
▁spiritual	-10.8044
▁denial	-10.806
▁approaches	-10.8063
▁breath	-10.8066
▁leg	-10.807
▁extraordinary	-10.8077
uc	-10.8077
▁literature	-10.8082
▁briefs	-10.8082
▁contained	-10.8083
▁arrested	-10.8088
▁ancient	-10.8091
▁bro	-10.8091
▁alcohol	-10.8092
▁trained	-10.8093
▁corporation	-10.8097
▁jo	-10.8104
▁assist	-10.8109
▁beach	-10.8114
▁planned	-10.812
▁enormous	-10.8131
▁candidate	-10.8145
▁whatsoever	-10.8153
▁silver	-10.8161
▁circumstance	-10.8163
▁intend	-10.8166
▁attended	-10.817
▁competitiveness	-10.8174
▁doctors	-10.8176
▁pushing	-10.8176
▁pending	-10.8179
▁legally	-10.8182
▁obtained	-10.8186
▁instances	-10.8199
▁tour	-10.82
▁harder	-10.8202
▁twentyeight	-10.8202
ja	-10.8214
▁commitments	-10.8214
▁goods	-10.8219
▁magic	-10.8219
▁preparation	-10.822
▁storm	-10.8221
▁liquid	-10.8222
▁ratio	-10.8224
▁unlike	-10.8228
▁meaningful	-10.823
▁transactions	-10.8231
▁electricity	-10.8236
▁wearing	-10.8237
▁logic	-10.8251
▁height	-10.8251
▁enforce	-10.8253
▁substantive	-10.826
▁armed	-10.8264
▁lock	-10.8265
▁techniques	-10.8265
mon	-10.8266
▁mad	-10.8267
▁tourism	-10.8278
▁rational	-10.828
▁nato	-10.8281
▁dropped	-10.8286
ea	-10.8287
▁mail	-10.8288
▁suspect	-10.829
▁ah	-10.8293
▁barriers	-10.8294
▁deadline	-10.8296
▁visa	-10.8313
▁shoot	-10.8314
▁intellectual	-10.8319
▁cup	-10.832
▁parliamentary	-10.8322
▁anxiety	-10.8324
gu	-10.8325
▁gang	-10.8331
▁violations	-10.8332
▁studio	-10.8332
▁timing	-10.8334
▁reflected	-10.8335
▁grace	-10.8345
▁soldiers	-10.8347
ator	-10.8348
▁curve	-10.8349
gen	-10.8355
▁enhance	-10.8359
▁promoting	-10.8374
▁flexible	-10.838
▁claimed	-10.8391
▁thou	-10.8391
▁flows	-10.8398
ney	-10.8408
▁strict	-10.8409
▁dinner	-10.842
▁contrast	-10.842
▁confirm	-10.8422
▁grab	-10.8427
▁bitcoin	-10.8428
▁pot	-10.8428
▁string	-10.8428
▁silence	-10.843
▁communications	-10.8432
▁survive	-10.8433
▁begins	-10.8434
▁martin	-10.8436
▁examine	-10.8436
▁ga	-10.8437
▁troops	-10.844
▁translation	-10.8445
▁politicians	-10.8446
▁determining	-10.8451
▁salt	-10.8453
▁kick	-10.8468
▁covers	-10.8469
▁tiny	-10.847
ze	-10.847
▁personnel	-10.8471
▁ride	-10.8474
du	-10.8474
▁owners	-10.8474
ning	-10.8479
ical	-10.8483
▁linear	-10.8484
▁prevention	-10.8484
▁interaction	-10.8487
▁producing	-10.8487
▁functioning	-10.8488
▁monetary	-10.8499
▁destroy	-10.8505
fu	-10.8511
▁combined	-10.8514
mar	-10.8516
▁facilitate	-10.852
▁veterans	-10.8521
▁targeted	-10.8522
▁succeed	-10.8522
her	-10.8525
▁mortgage	-10.853
▁delivered	-10.853
▁allegation	-10.8534
▁georgia	-10.8537
▁shortly	-10.8542
▁industries	-10.8548
▁sam	-10.8556
▁follows	-10.8558
▁custom	-10.8559
ag	-10.856
▁michigan	-10.8562
▁protocol	-10.8567
end	-10.857
▁dynamic	-10.8574
▁wise	-10.8575
▁combine	-10.8576
▁plays	-10.8579
▁hotel	-10.859
▁restrictions	-10.8594
▁pet	-10.8599
▁refers	-10.861
▁managing	-10.8616
▁settings	-10.862
▁privilege	-10.8623
▁acceptable	-10.8626
▁minority	-10.8629
▁emphasis	-10.8633
▁shooting	-10.8633
▁hide	-10.8637
mal	-10.8648
▁deny	-10.8652
▁broke	-10.8665
▁naturally	-10.8666
▁violent	-10.8669
▁trafficking	-10.8671
▁agents	-10.8677
▁vector	-10.8693
▁registration	-10.8699
▁radical	-10.8699
▁certification	-10.8702
▁strip	-10.8704
▁coach	-10.8707
▁streets	-10.8707
▁alpha	-10.8707
▁limitation	-10.871
▁interpret	-10.8713
▁cooperate	-10.8723
▁afghanistan	-10.8727
▁functional	-10.8733
▁confident	-10.8743
▁universities	-10.8748
▁rent	-10.8751
▁settled	-10.8762
▁existed	-10.8769
▁sheet	-10.8771
▁inference	-10.8772
▁polish	-10.8774
▁attend	-10.8776
▁tremendous	-10.8779
▁blog	-10.878
▁ca	-10.8781
▁occurs	-10.879
▁weekend	-10.8795
▁filter	-10.8796
▁grass	-10.8796
▁battery	-10.8804
▁crack	-10.8805
▁consultation	-10.8809
▁budgetary	-10.8814
▁genuine	-10.8822
▁occasion	-10.8822
▁brexit	-10.8823
▁driven	-10.8824
▁lawyers	-10.8825
▁slides	-10.8826
▁pandemic	-10.8827
▁prayer	-10.8829
▁latin	-10.8834
au	-10.8834
▁accessibility	-10.884
fully	-10.8842
▁repeatedly	-10.8842
▁checks	-10.8849
▁impacts	-10.885
▁gene	-10.8859
▁entities	-10.886
▁wanting	-10.8864
▁mu	-10.8864
▁mediterranean	-10.8867
▁ruled	-10.887
fin	-10.8871
▁raw	-10.8881
▁script	-10.8882
▁farming	-10.8884
▁hole	-10.8885
▁historic	-10.8885
▁sunday	-10.8885
▁del	-10.8893
five	-10.8896
▁acid	-10.8897
▁cuts	-10.8901
▁dna	-10.8904
▁organic	-10.891
nes	-10.8915
▁stem	-10.8919
▁passion	-10.8923
eg	-10.8934
▁preparing	-10.8935
▁dress	-10.8936
▁complaints	-10.8946
▁funded	-10.8951
▁motor	-10.8953
▁genome	-10.8962
▁references	-10.8965
▁replaced	-10.8969
▁recover	-10.8977
▁mistakes	-10.8978
▁disaster	-10.8984
▁struggling	-10.8986
▁migrants	-10.8989
▁virginia	-10.8996
▁blow	-10.8998
▁variables	-10.9001
▁wa	-10.9001
▁lunch	-10.9003
▁neutral	-10.9006
▁deeply	-10.9007
▁developments	-10.9009
▁presumption	-10.9015
▁indicates	-10.9021
▁innovative	-10.9035
▁tall	-10.9044
▁reliable	-10.9046
▁permitted	-10.905
▁falling	-10.9052
▁sovereign	-10.9054
▁smoke	-10.9058
▁william	-10.9071
▁semester	-10.9073
▁velocity	-10.9076
▁repeated	-10.9079
▁wage	-10.908
▁le	-10.9081
▁apartment	-10.9081
▁paint	-10.9082
▁overview	-10.9083
▁jones	-10.9084
house	-10.9088
▁edit	-10.9108
▁deeper	-10.9109
▁stack	-10.9112
▁proved	-10.9123
▁residence	-10.9124
▁entering	-10.9128
▁observation	-10.913
▁landscape	-10.9131
iv	-10.9131
▁fortyfive	-10.9136
▁touched	-10.9137
▁documentation	-10.9147
▁extensive	-10.9161
▁drew	-10.9162
ang	-10.9162
bar	-10.9166
▁collected	-10.9175
bb	-10.9176
▁trace	-10.9182
▁surveillance	-10.9184
▁providers	-10.9185
▁adjust	-10.9186
▁parameters	-10.9187
▁namely	-10.9191
▁grown	-10.9193
▁criticism	-10.9195
wi	-10.9197
ible	-10.9199
▁smooth	-10.92
▁feelings	-10.9202
ide	-10.9204
▁dogs	-10.9205
▁loans	-10.9209
▁cons	-10.9215
▁friendly	-10.9215
▁deciding	-10.922
▁editor	-10.9229
▁crowd	-10.9229
▁inconsistent	-10.9234
▁confirmed	-10.9237
▁affordable	-10.9238
▁continent	-10.9239
▁accountability	-10.9241
▁exposed	-10.9243
▁breaking	-10.9243
▁gray	-10.9246
▁equity	-10.9267
over	-10.9273
▁exit	-10.9273
▁deals	-10.9276
▁operators	-10.9276
▁brothers	-10.928
▁shell	-10.9281
tor	-10.929
▁consequence	-10.9299
▁motivation	-10.93
▁discipline	-10.9304
▁confused	-10.9307
▁smile	-10.9307
port	-10.9309
py	-10.931
▁cook	-10.9312
▁candidates	-10.9314
▁jack	-10.9324
▁distributed	-10.9325
om	-10.9326
▁relying	-10.933
▁increasingly	-10.9341
▁crossborder	-10.9342
▁precise	-10.9345
▁hidden	-10.9348
▁wine	-10.9349
▁tone	-10.9352
▁proven	-10.9359
▁mask	-10.9365
▁engaging	-10.9367
▁generated	-10.9369
▁asia	-10.9369
▁heavily	-10.9371
▁array	-10.9375
▁estimate	-10.938
▁prize	-10.938
▁attitude	-10.9383
▁rebuttal	-10.9384
▁bow	-10.9384
ification	-10.9388
▁roof	-10.9388
▁identical	-10.939
▁suggestions	-10.94
▁clock	-10.9407
▁excessive	-10.9409
ru	-10.9411
tri	-10.9411
▁pillar	-10.9412
▁odd	-10.9412
▁explicitly	-10.9413
▁causing	-10.9413
▁recommended	-10.9413
▁col	-10.9418
▁walls	-10.9419
▁destroyed	-10.942
board	-10.9423
▁charles	-10.9431
▁appendix	-10.9444
▁discover	-10.9445
▁sharp	-10.9449
▁continuous	-10.945
▁adverse	-10.9454
▁subjects	-10.9459
▁affects	-10.9469
▁pa	-10.9477
▁railway	-10.9478
▁essence	-10.9482
▁interact	-10.9483
pr	-10.9487
▁doors	-10.9488
▁lo	-10.949
▁negotiation	-10.9492
▁compete	-10.9498
▁equitable	-10.9507
▁diet	-10.9513
▁launched	-10.9524
▁atmosphere	-10.9533
▁distinct	-10.9537
▁considerable	-10.9542
▁apologize	-10.9557
▁promised	-10.9557
lic	-10.9559
od	-10.9561
▁timely	-10.9561
▁golden	-10.9561
▁amend	-10.9562
▁craft	-10.9568
▁pipe	-10.9569
▁terrorist	-10.9569
▁lights	-10.9571
law	-10.9573
▁counts	-10.9576
▁procurement	-10.9576
▁asset	-10.9582
cr	-10.9585
▁orange	-10.9585
▁tied	-10.9587
nt	-10.959
ions	-10.9596
▁quantity	-10.9598
▁theme	-10.9605
▁inclusion	-10.961
▁peak	-10.9626
▁occasions	-10.9627
▁grants	-10.963
▁thy	-10.9636
▁japanese	-10.9637
▁grave	-10.9641
ap	-10.9642
ris	-10.9644
▁rapid	-10.9645
▁surely	-10.9648
▁bird	-10.9648
zi	-10.9653
▁import	-10.9657
▁watched	-10.9659
▁comfort	-10.9663
▁welfare	-10.9665
▁membership	-10.9665
ries	-10.9667
▁concepts	-10.9671
▁producers	-10.9676
ji	-10.9676
br	-10.968
▁disabled	-10.969
▁sha	-10.9695
▁retirement	-10.97
stone	-10.97
ious	-10.97
king	-10.9703
ip	-10.9709
▁incredibly	-10.9714
▁manufacturing	-10.9716
▁tank	-10.9716
▁plate	-10.9719
▁substitute	-10.9719
▁tired	-10.9724
▁hire	-10.9727
▁auditors	-10.9731
▁bush	-10.9731
▁angry	-10.9732
▁coal	-10.974
▁transformation	-10.9746
▁proposition	-10.9748
▁temple	-10.975
▁finger	-10.9756
▁architecture	-10.9758
▁patterns	-10.976
▁preliminary	-10.9761
▁guideline	-10.9763
▁holds	-10.9765
▁liberty	-10.977
▁sake	-10.9782
▁folder	-10.9782
che	-10.9782
▁shit	-10.9783
▁indicators	-10.9784
▁irish	-10.9785
▁attempted	-10.9785
▁ministry	-10.979
▁tail	-10.9791
▁renewable	-10.9793
▁characteristics	-10.9797
ub	-10.98
▁decrease	-10.9801
pp	-10.9809
▁mirror	-10.9809
▁actively	-10.9809
ky	-10.982
▁wrap	-10.9822
▁clothes	-10.9826
▁spectrum	-10.9827
▁approve	-10.9828
▁channels	-10.983
▁voltage	-10.9831
▁affirm	-10.9832
ng	-10.9832
▁tri	-10.9837
▁depression	-10.9838
fo	-10.9843
▁pointing	-10.9845
ably	-10.9847
▁trigger	-10.9848
▁competence	-10.985
▁heading	-10.986
▁unreasonable	-10.9864
▁burn	-10.9871
▁taxpayers	-10.9873
▁stake	-10.9876
▁responses	-10.9878
▁drag	-10.9881
▁regularly	-10.9889
▁allah	-10.989
▁advertising	-10.9903
eth	-10.9905
▁install	-10.9905
dic	-10.991
▁crew	-10.9918
▁automatic	-10.9928
▁thirtyfive	-10.993
▁highway	-10.9937
▁customs	-10.9938
ko	-10.9939
▁saving	-10.9941
▁respectfully	-10.9942
▁violated	-10.9943
▁roads	-10.9945
▁lease	-10.9946
▁observe	-10.9952
▁classic	-10.9954
▁outcomes	-10.9956
gs	-10.9957
▁richard	-10.9957
▁negotiating	-10.9966
▁aircraft	-10.9967
▁respected	-10.9968
▁alert	-10.9977
▁manifest	-10.9981
of	-10.9981
ified	-10.9984
▁painting	-10.9989
▁fluid	-10.9994
▁blocks	-10.9995
my	-10.9995
▁symptoms	-11.0001
▁invention	-11.0008
▁rapidly	-11.0013
▁expenses	-11.0016
▁hardly	-11.0021
ker	-11.0022
▁islands	-11.0026
▁inner	-11.0027
▁conflicts	-11.0031
▁consumption	-11.0033
▁rising	-11.0033
▁dan	-11.0034
▁par	-11.0038
ax	-11.0046
▁suspicion	-11.0057
▁kitchen	-11.0059
▁cluster	-11.0065
▁eliminate	-11.0067
▁trail	-11.0082
▁artificial	-11.0096
▁conservation	-11.0096
▁moves	-11.0108
▁lying	-11.0112
▁reject	-11.0112
▁songs	-11.0115
▁silent	-11.0122
rick	-11.0123
▁killing	-11.0135
▁tap	-11.0143
▁artist	-11.0146
▁gate	-11.0149
▁calm	-11.0161
em	-11.0162
▁shoulder	-11.0164
▁clip	-11.0164
▁participating	-11.0168
▁bills	-11.0171
▁crystal	-11.0173
tel	-11.0175
▁addresses	-11.0179
▁checking	-11.0179
▁grid	-11.0183
▁yep	-11.0196
▁cor	-11.0197
▁indictment	-11.02
▁liked	-11.0207
▁registered	-11.0213
▁pipeline	-11.0219
▁custody	-11.0222
▁gather	-11.0224
▁pushed	-11.023
▁cable	-11.0243
▁moments	-11.0245
▁subcommittee	-11.0245
▁luck	-11.0245
▁birds	-11.0246
▁intervene	-11.025
ging	-11.0252
hy	-11.0253
▁icon	-11.0256
qua	-11.0258
▁moreover	-11.0259
▁inclusive	-11.026
ina	-11.0267
▁praise	-11.0269
▁joe	-11.0272
▁proposing	-11.0272
▁transferred	-11.0277
▁sufficiently	-11.0285
▁pocket	-11.0288
our	-11.0289
▁smell	-11.0292
▁realistic	-11.0293
▁peer	-11.0293
▁calculation	-11.0298
af	-11.03
▁acted	-11.0304
▁genetic	-11.0309
▁roman	-11.0315
▁thin	-11.0329
isation	-11.0334
▁keeps	-11.0334
hr	-11.0335
▁fed	-11.0336
▁sport	-11.0337
▁chris	-11.0342
▁ohio	-11.0343
▁arts	-11.0347
▁physically	-11.0349
▁probation	-11.0353
▁belong	-11.0356
▁perception	-11.0357
▁britain	-11.036
▁arbitrator	-11.0365
▁rob	-11.0369
▁algorithm	-11.0371
▁publish	-11.0371
▁bat	-11.0382
▁bra	-11.0391
▁organize	-11.0392
sha	-11.0393
▁browser	-11.0397
▁abstract	-11.0399
▁tips	-11.0401
▁castle	-11.0401
▁firstly	-11.0404
▁neck	-11.0407
ec	-11.0408
▁dr	-11.0417
▁clerk	-11.0417
▁clarity	-11.0421
▁integrity	-11.0422
▁fleet	-11.0424
▁negotiate	-11.0424
▁heritage	-11.0424
▁cents	-11.0426
▁instagram	-11.0427
▁buttons	-11.043
▁implications	-11.043
▁failing	-11.0441
▁encouraging	-11.0445
▁lift	-11.0453
▁supervision	-11.0455
▁spaces	-11.0457
▁amazon	-11.0459
▁bread	-11.0459
down	-11.0461
▁ab	-11.0464
▁williams	-11.0465
▁adjustment	-11.0467
▁investigate	-11.0469
▁ineffective	-11.0472
▁ngos	-11.0479
vin	-11.0487
▁flood	-11.049
▁currency	-11.0493
▁bob	-11.0497
ns	-11.0497
▁manual	-11.0512
▁widely	-11.0512
▁roughly	-11.0514
▁satisfy	-11.0515
▁employers	-11.0516
▁capabilities	-11.0521
▁pat	-11.0524
▁rapporteurs	-11.0525
▁presenting	-11.0525
▁whoever	-11.0528
▁bureau	-11.0529
▁furthermore	-11.053
▁expectation	-11.0533
▁bid	-11.0533
▁effectiveness	-11.0541
▁buried	-11.0542
▁contest	-11.0543
▁assumption	-11.0544
▁integral	-11.0549
▁flowers	-11.0549
▁divine	-11.0555
▁publication	-11.0556
▁establishment	-11.0559
▁township	-11.0559
▁promotion	-11.0563
▁technique	-11.0564
▁diverse	-11.0567
▁pack	-11.0568
berg	-11.0573
▁execution	-11.0573
▁connections	-11.0577
▁exclusive	-11.0577
▁neighbors	-11.0578
▁chi	-11.0578
▁employed	-11.0579
▁covering	-11.0585
▁enterprise	-11.0585
▁mess	-11.0592
▁towns	-11.0594
▁dash	-11.06
▁excluded	-11.0603
▁successfully	-11.0604
▁scroll	-11.0605
▁centers	-11.0611
▁legs	-11.0614
▁adapt	-11.0614
ens	-11.0623
▁engineer	-11.0626
▁bearing	-11.0629
well	-11.0631
▁letting	-11.0632
▁subsequently	-11.0636
▁studying	-11.0636
▁convert	-11.0642
▁calendar	-11.0645
ev	-11.0647
▁protein	-11.0647
▁conservative	-11.0655
▁avenue	-11.0658
▁artists	-11.0665
▁trauma	-11.0668
year	-11.0671
▁adults	-11.0672
▁bilateral	-11.0673
istic	-11.0677
▁worker	-11.0684
▁republican	-11.069
▁narrative	-11.0693
▁technological	-11.0693
▁opposing	-11.0696
av	-11.0697
▁pace	-11.0699
▁tenth	-11.0704
if	-11.0706
▁undisputed	-11.0706
▁authorized	-11.0708
▁economies	-11.0711
ach	-11.0713
ran	-11.072
▁assigned	-11.0727
▁magistrate	-11.0729
▁integrate	-11.0731
▁shoes	-11.0736
▁dust	-11.0737
▁interpreted	-11.0739
▁statutes	-11.0741
▁societies	-11.0743
▁fired	-11.0745
▁sections	-11.0745
▁improper	-11.0746
▁drinking	-11.0747
▁horizontal	-11.0752
▁thick	-11.0753
▁hook	-11.0756
▁giant	-11.0759
▁bonds	-11.0773
gg	-11.0777
▁maintained	-11.078
▁upload	-11.0781
use	-11.0783
▁uncle	-11.0785
▁symbol	-11.0788
ui	-11.0792
▁greatly	-11.0803
▁beneficial	-11.0811
▁diseases	-11.0827
▁specification	-11.0829
▁loud	-11.0837
ei	-11.0838
▁latter	-11.0838
▁miller	-11.0839
▁wider	-11.0842
▁knight	-11.0845
▁humans	-11.0853
▁era	-11.0854
▁logical	-11.0857
▁tradition	-11.0862
▁composition	-11.0863
▁advisory	-11.0864
▁exhibit	-11.0874
▁bull	-11.0878
▁shadows	-11.0882
▁reasoning	-11.0882
▁du	-11.0891
len	-11.0901
▁wi	-11.0902
▁egypt	-11.0903
cri	-11.0906
▁residential	-11.0912
▁decade	-11.0914
▁regulate	-11.0921
▁oversight	-11.0926
ab	-11.0933
▁marked	-11.0933
▁competent	-11.0934
▁posted	-11.0935
▁journalists	-11.0936
▁corn	-11.0945
▁encounter	-11.0945
▁epp	-11.0946
▁deputy	-11.0951
▁reflection	-11.0954
▁programmes	-11.0956
▁reviews	-11.0959
▁bias	-11.096
▁nonetheless	-11.0961
▁partial	-11.0962
ino	-11.0965
ft	-11.0967
ek	-11.0968
▁incorrect	-11.0971
hal	-11.0976
▁courage	-11.0979
▁colour	-11.098
▁coordinate	-11.0981
▁tested	-11.0984
▁tie	-11.0985
ef	-11.0987
▁assure	-11.099
aries	-11.0992
▁investing	-11.0993
▁hardware	-11.0994
▁expansion	-11.0998
ox	-11.1001
▁forgot	-11.1009
vi	-11.1011
▁demo	-11.1015
▁persecution	-11.1017
▁operator	-11.1018
▁flying	-11.1021
and	-11.1034
▁establishing	-11.1036
ung	-11.1055
▁slope	-11.1055
▁declared	-11.1057
▁detention	-11.1058
▁identification	-11.1058
▁performing	-11.1059
▁gear	-11.1063
matic	-11.1073
▁voices	-11.1079
▁searching	-11.1085
▁regret	-11.1086
▁chicken	-11.1086
▁deserve	-11.1091
▁lucky	-11.1091
▁treaties	-11.1095
cha	-11.1101
▁checked	-11.1116
▁corresponding	-11.1128
▁machines	-11.1129
▁horizon	-11.113
▁hungary	-11.1134
▁shame	-11.1135
▁jim	-11.1137
▁underneath	-11.1143
fla	-11.1145
▁epa	-11.1146
▁deck	-11.1149
▁pitch	-11.1149
▁hypothetical	-11.1156
▁happiness	-11.1156
▁boxes	-11.1158
▁pause	-11.1165
▁wire	-11.1167
▁dismissal	-11.1167
▁fake	-11.1175
je	-11.1177
▁reviewing	-11.1177
▁serves	-11.1181
▁decent	-11.1188
▁sp	-11.1194
▁distinguished	-11.1194
▁chip	-11.1196
ud	-11.1198
▁visited	-11.1199
▁pounds	-11.1201
▁emotions	-11.1206
▁sessions	-11.1212
▁dude	-11.1214
▁seventyfive	-11.1215
▁carolina	-11.1224
▁philosophy	-11.1228
tes	-11.1231
▁profits	-11.1232
tion	-11.1235
▁databases	-11.1244
▁citizenship	-11.1246
▁strengthening	-11.1248
▁tight	-11.1251
▁mount	-11.1263
ius	-11.1265
▁returns	-11.1265
▁submission	-11.1272
▁webinar	-11.1272
▁incorporate	-11.1276
▁accomplish	-11.1277
▁evolution	-11.1278
▁retail	-11.1283
▁courses	-11.1283
▁ships	-11.1285
▁repair	-11.1294
▁torture	-11.1295
ure	-11.1307
▁mountains	-11.1309
▁affirmative	-11.131
▁desk	-11.1311
▁awful	-11.1312
▁computers	-11.1314
▁scrutiny	-11.1317
▁provider	-11.1318
▁arise	-11.132
▁alliance	-11.1329
don	-11.1335
▁listened	-11.1336
▁bike	-11.1337
▁termination	-11.1338
▁tries	-11.1343
▁cheap	-11.1346
▁solely	-11.1352
▁innocent	-11.1354
▁blame	-11.1355
▁pollution	-11.1361
jo	-11.1367
▁maintaining	-11.1367
aw	-11.1368
▁marks	-11.1369
▁brush	-11.1373
sen	-11.1379
▁navy	-11.1384
▁newspaper	-11.1385
▁trap	-11.1389
▁microsoft	-11.1391
▁graduate	-11.1392
▁refuse	-11.1393
▁demands	-11.1394
▁appointment	-11.1399
▁responded	-11.1405
▁flip	-11.1407
mate	-11.1409
▁stupid	-11.1411
▁hired	-11.1412
▁pennsylvania	-11.1413
▁convince	-11.1414
▁korea	-11.1414
▁revision	-11.1415
▁wednesday	-11.1416
▁drivers	-11.1416
▁pleasant	-11.1423
▁ear	-11.1429
▁contributed	-11.1429
rous	-11.1432
▁collateral	-11.1437
▁leverage	-11.1439
twenty	-11.1441
day	-11.1446
▁commonly	-11.1449
▁nu	-11.1456
ov	-11.1458
▁threatened	-11.1461
▁bargaining	-11.1463
▁admission	-11.1464
▁injured	-11.147
cho	-11.1475
▁devil	-11.1476
▁certainty	-11.1488
▁voters	-11.1491
▁ju	-11.1492
▁settle	-11.1495
for	-11.15
▁minds	-11.1507
▁robust	-11.1509
▁flash	-11.151
▁arizona	-11.1511
▁retain	-11.1511
▁exceptions	-11.1512
▁insufficient	-11.1513
rate	-11.1517
hu	-11.1522
▁plug	-11.1522
▁necessity	-11.1523
▁arrive	-11.1525
▁trick	-11.1527
ez	-11.1529
▁academy	-11.1536
▁expecting	-11.1538
▁coin	-11.1539
▁justify	-11.1541
▁shock	-11.1541
▁awarded	-11.1542
▁tower	-11.1543
▁fraction	-11.1545
▁lastly	-11.1548
▁honour	-11.1552
▁updated	-11.1552
▁acknowledged	-11.1554
▁locations	-11.1556
▁picking	-11.1557
▁publicly	-11.1559
▁lane	-11.1573
nie	-11.1575
▁punishment	-11.1576
▁generic	-11.1579
▁wisdom	-11.1581
▁poll	-11.1583
▁connecting	-11.1585
▁inspired	-11.1588
ix	-11.1592
▁gospel	-11.1592
▁thrown	-11.1596
▁hence	-11.1606
▁conscious	-11.1606
▁demonstrated	-11.1613
▁generations	-11.1614
▁earn	-11.1614
▁tuesday	-11.1617
▁tag	-11.1618
pro	-11.1618
▁stored	-11.1619
▁ram	-11.1623
▁accommodation	-11.163
tur	-11.1636
▁rome	-11.164
▁organisations	-11.1643
▁ambassador	-11.1644
▁pursuant	-11.1644
▁distinguish	-11.1645
▁broadcast	-11.1645
▁purely	-11.1645
▁significance	-11.165
▁mike	-11.1651
▁faces	-11.1659
▁felony	-11.1661
▁chicago	-11.1661
▁budgets	-11.1664
▁evidentiary	-11.1664
▁density	-11.1668
ising	-11.1669
uring	-11.167
ign	-11.1672
▁offices	-11.1673
▁parliaments	-11.1676
▁lovely	-11.1681
▁waived	-11.1684
▁separation	-11.1694
▁resulted	-11.1702
▁workshop	-11.1708
▁cry	-11.171
▁exclude	-11.1714
chi	-11.1723
▁slash	-11.1726
state	-11.1726
▁pink	-11.1727
▁upset	-11.1729
▁max	-11.173
▁accounting	-11.173
▁tutorial	-11.1731
ric	-11.1739
▁debtor	-11.1739
▁scott	-11.174
▁ranking	-11.1748
▁bold	-11.175
▁vessels	-11.1754
▁abroad	-11.176
▁explaining	-11.1762
▁consistently	-11.1763
cher	-11.1764
▁citation	-11.1769
▁thursday	-11.1772
▁bomb	-11.1775
stein	-11.1776
▁derivative	-11.1778
▁problematic	-11.1781
ath	-11.1792
▁gross	-11.1792
ada	-11.1795
▁foster	-11.1795
ged	-11.1797
▁guns	-11.1801
▁forgotten	-11.1804
▁attempts	-11.1805
▁lee	-11.1806
▁guest	-11.1807
▁bullet	-11.1807
▁achieving	-11.1815
nd	-11.1816
▁anyways	-11.1817
▁prong	-11.1817
▁sword	-11.1819
▁shore	-11.1824
▁tar	-11.1825
▁stayed	-11.1828
▁insured	-11.1831
▁controlling	-11.1834
▁pulling	-11.1837
▁farmer	-11.184
▁romania	-11.1843
▁zoning	-11.1845
▁healing	-11.1851
▁supervisor	-11.1852
▁departure	-11.1854
tru	-11.1861
▁incentives	-11.1865
▁et	-11.1865
▁insist	-11.1866
▁venture	-11.187
▁staying	-11.187
▁keen	-11.1871
tal	-11.1875
▁undermine	-11.1878
▁humanity	-11.1886
▁uncertainty	-11.1888
mit	-11.1888
▁illness	-11.1893
head	-11.1894
▁losses	-11.19
▁tender	-11.1902
▁portfolio	-11.1906
▁dates	-11.1908
ets	-11.191
▁identifying	-11.191
▁highlighted	-11.1922
▁mile	-11.1922
▁jackson	-11.1925
▁movements	-11.1926
▁injuries	-11.1926
gent	-11.1929
blo	-11.193
▁layers	-11.1932
▁modified	-11.1936
▁massachusetts	-11.1947
▁microphone	-11.1947
▁films	-11.1952
cle	-11.1956
▁instant	-11.1958
▁consciousness	-11.196
▁virtually	-11.196
▁certificate	-11.196
▁echo	-11.1961
▁authorization	-11.1967
▁interior	-11.197
▁libya	-11.197
▁ye	-11.1976
▁province	-11.1977
▁twentysix	-11.1988
tz	-11.1988
▁educated	-11.1992
▁straightforward	-11.1996
▁shirt	-11.2
▁pump	-11.2002
▁anger	-11.2006
▁objections	-11.2022
▁jordan	-11.2022
▁robbery	-11.2029
▁mono	-11.2031
▁defeat	-11.2034
▁tongue	-11.2036
▁absent	-11.2039
▁catholic	-11.2041
▁eurozone	-11.2043
▁harmless	-11.2046
▁disorder	-11.2054
bs	-11.2056
▁pacific	-11.2061
▁yo	-11.2063
▁allocation	-11.2064
▁invitation	-11.2071
cla	-11.2078
▁informal	-11.2079
▁ending	-11.2079
▁photos	-11.2081
▁sentences	-11.2086
▁installed	-11.2087
▁cha	-11.2095
▁saturday	-11.2096
▁stations	-11.2103
illa	-11.2105
pl	-11.2108
comp	-11.2111
▁alien	-11.2113
▁virtue	-11.2113
▁spin	-11.2114
har	-11.2116
▁fits	-11.2119
▁dying	-11.212
▁stages	-11.2122
cing	-11.2123
▁waters	-11.2126
▁thirtytwo	-11.2128
ff	-11.2129
▁expense	-11.213
nic	-11.213
▁worldwide	-11.2131
▁mouse	-11.2133
▁henry	-11.2134
▁festival	-11.2136
▁differ	-11.2136
▁shelter	-11.2142
▁detect	-11.2142
▁incorporated	-11.2143
▁setup	-11.2145
▁vessel	-11.2146
▁expenditure	-11.2151
▁fe	-11.2154
▁twin	-11.2155
▁nowhere	-11.2155
▁bri	-11.2157
▁diagram	-11.2161
▁withdraw	-11.2162
▁founded	-11.2162
▁har	-11.2165
▁junior	-11.2169
▁traveling	-11.2171
ect	-11.2173
▁proportion	-11.2173
▁accused	-11.2182
▁negligence	-11.2182
▁joke	-11.2186
▁maritime	-11.2188
ery	-11.2188
▁christians	-11.2199
▁dreams	-11.22
▁configuration	-11.2201
▁accession	-11.2202
▁attractive	-11.2204
▁favorable	-11.2205
▁answering	-11.2206
yl	-11.2209
▁methodology	-11.221
▁justified	-11.2211
▁rough	-11.2218
▁loose	-11.2218
book	-11.2221
▁versions	-11.2222
▁sue	-11.2222
▁netherlands	-11.2226
▁actor	-11.223
▁assert	-11.223
▁eleventh	-11.2233
▁assumed	-11.2235
▁meters	-11.2239
▁restaurant	-11.2241
▁alternatives	-11.2243
▁missions	-11.2245
▁mor	-11.2248
▁notification	-11.2248
▁partly	-11.2248
▁span	-11.225
▁emails	-11.2251
▁telephone	-11.2253
▁para	-11.2259
▁substances	-11.2263
▁encouraged	-11.2266
like	-11.2274
▁holland	-11.2282
▁timeline	-11.2288
▁overwhelming	-11.229
▁api	-11.2294
▁jewish	-11.2294
▁applicant	-11.2295
▁guests	-11.2295
pu	-11.2296
▁hanging	-11.2296
▁node	-11.2296
▁therapy	-11.2299
▁wishes	-11.2303
▁translate	-11.2307
▁arrangements	-11.2309
▁routine	-11.2314
▁collecting	-11.2317
▁hearings	-11.2318
▁restore	-11.2321
▁fo	-11.2323
▁mini	-11.2323
▁passenger	-11.2328
▁marijuana	-11.2329
box	-11.2329
▁deemed	-11.2331
▁arab	-11.2331
ded	-11.2333
▁pride	-11.2335
▁separated	-11.2336
▁explicit	-11.2339
▁conversion	-11.2347
▁farms	-11.2351
▁expressly	-11.2351
▁boost	-11.2354
▁tort	-11.2357
▁sweden	-11.236
▁boundary	-11.2361
▁nervous	-11.2362
▁surgery	-11.2364
▁politically	-11.2371
▁challenged	-11.2371
▁definitions	-11.2375
▁ku	-11.2377
can	-11.2383
▁wages	-11.2383
▁speaks	-11.2386
▁fought	-11.2386
▁requiring	-11.2386
rack	-11.2388
▁railroad	-11.239
▁broadly	-11.2391
▁gay	-11.2392
▁authors	-11.2395
▁intelligent	-11.2395
▁substantially	-11.2396
ros	-11.2399
▁separately	-11.2404
▁complexity	-11.2408
▁enhancement	-11.2409
▁coat	-11.241
▁formation	-11.2413
▁cop	-11.2415
▁fingers	-11.2419
▁teeth	-11.2421
▁canvas	-11.2422
▁waves	-11.2423
▁prophet	-11.2423
▁grain	-11.2427
▁dig	-11.2433
▁taylor	-11.2437
▁destination	-11.2441
▁taxation	-11.2443
▁technically	-11.2445
▁solved	-11.2445
▁abandoned	-11.2455
▁burning	-11.2461
▁jersey	-11.2462
▁cal	-11.2467
▁advocate	-11.2468
▁clarification	-11.247
▁calculated	-11.2472
▁shield	-11.2474
row	-11.2476
▁urgent	-11.2481
▁stretch	-11.2489
▁mill	-11.2493
des	-11.25
▁cyber	-11.2502
▁claiming	-11.2502
▁gaps	-11.2504
▁hub	-11.2504
▁daniel	-11.2508
▁returning	-11.2512
▁pleading	-11.2517
▁glory	-11.252
▁consists	-11.252
▁specify	-11.2522
▁transform	-11.2523
▁mere	-11.2528
▁dual	-11.2529
▁damn	-11.2533
▁australian	-11.2534
wn	-11.2542
▁productive	-11.2548
▁fox	-11.255
▁ethical	-11.2553
▁samples	-11.2566
▁superior	-11.2566
ay	-11.2572
▁supplemental	-11.2573
▁roles	-11.2575
tan	-11.2579
▁solving	-11.2583
▁incentive	-11.2588
▁fewer	-11.2589
ple	-11.2591
▁dutch	-11.2591
▁household	-11.2593
▁deposit	-11.2599
▁treating	-11.2599
▁associate	-11.2605
▁destruction	-11.2605
▁pose	-11.2608
▁render	-11.261
▁emerging	-11.2613
▁reflects	-11.2614
▁phenomenon	-11.2625
seven	-11.2629
▁mag	-11.2641
▁congratulate	-11.2641
▁ninetynine	-11.2643
▁crossing	-11.2646
ju	-11.2649
▁followup	-11.265
▁horses	-11.2659
▁flesh	-11.2662
▁excess	-11.2669
▁crop	-11.267
▁tracks	-11.267
▁mod	-11.2674
cl	-11.2681
▁emerge	-11.2684
nar	-11.2685
▁deficit	-11.2688
▁quit	-11.2695
ho	-11.2695
▁winning	-11.2699
▁rank	-11.27
rated	-11.2702
▁biological	-11.2704
▁fancy	-11.2705
▁boundaries	-11.2706
▁sole	-11.2707
▁nose	-11.2711
▁fundamentally	-11.2712
▁supplement	-11.2716
▁qualify	-11.2717
▁gathering	-11.272
▁regulated	-11.2722
▁seal	-11.273
▁healthcare	-11.2736
▁intentional	-11.2736
six	-11.274
▁reputation	-11.274
▁ne	-11.2742
▁ambition	-11.2744
▁oxygen	-11.2746
▁momentum	-11.2747
ala	-11.2748
▁landing	-11.2756
▁concede	-11.2762
▁premium	-11.2763
class	-11.2764
▁invested	-11.2764
▁boston	-11.2765
▁addiction	-11.2765
▁meps	-11.2771
▁assessments	-11.2773
car	-11.279
▁merit	-11.2791
dia	-11.2794
▁professionals	-11.2797
▁describes	-11.2808
▁nevada	-11.281
▁magazine	-11.281
uff	-11.2817
▁sixtyfive	-11.2817
▁racial	-11.282
▁davis	-11.2822
▁rooms	-11.2823
▁contend	-11.283
▁breakfast	-11.2832
▁erroneous	-11.2832
▁writer	-11.2835
▁roma	-11.2837
▁ignored	-11.2841
▁refugee	-11.2843
▁segment	-11.2843
▁clicking	-11.2845
▁enterprises	-11.2845
▁civilian	-11.285
▁attract	-11.285
▁insert	-11.2852
▁terminal	-11.2859
▁omega	-11.2861
▁weigh	-11.2872
▁theater	-11.2879
▁revealed	-11.2883
char	-11.2887
▁password	-11.2888
▁purchased	-11.2895
▁boom	-11.2895
▁transmission	-11.2902
▁advantages	-11.2907
▁dive	-11.2913
▁shopping	-11.2913
▁pile	-11.2914
▁handling	-11.2917
▁workforce	-11.2924
▁mining	-11.2926
zero	-11.2931
▁capability	-11.2932
metric	-11.2932
▁variation	-11.2932
▁nurse	-11.2934
▁outline	-11.2934
▁delete	-11.2935
▁congratulations	-11.2937
▁bottle	-11.2941
▁psychological	-11.2941
▁crown	-11.2942
▁developers	-11.2946
▁protest	-11.2946
town	-11.2947
▁disputed	-11.2947
▁rolling	-11.2951
▁measured	-11.2952
aff	-11.2954
▁disclose	-11.2958
▁populations	-11.2962
▁genes	-11.2965
cra	-11.2966
▁ben	-11.2966
▁laugh	-11.2967
▁bia	-11.2968
▁multiply	-11.297
▁boss	-11.2973
▁workplace	-11.2976
▁fulfill	-11.2978
▁dramatic	-11.2981
▁blank	-11.2981
▁predict	-11.2984
▁bowl	-11.2984
▁dg	-11.2989
▁parcel	-11.2989
▁ta	-11.2997
▁gained	-11.3005
▁physician	-11.3006
▁confusing	-11.3008
▁manufacturers	-11.3011
▁breast	-11.3012
▁introducing	-11.3014
▁arrangement	-11.3015
▁rescue	-11.3015
▁joseph	-11.3016
▁enemies	-11.3018
▁managers	-11.302
ero	-11.302
act	-11.3021
zo	-11.3023
▁sarah	-11.3025
▁negotiated	-11.3027
▁electoral	-11.3035
▁vertical	-11.3036
▁structured	-11.3038
eb	-11.3039
▁deliberate	-11.304
▁sal	-11.3041
▁tribe	-11.3041
▁sacrifice	-11.3043
▁availability	-11.3045
▁pakistan	-11.3047
▁unity	-11.3047
▁brave	-11.3052
ons	-11.3053
▁guarantees	-11.3057
▁stocks	-11.3057
▁edward	-11.3058
▁noble	-11.306
▁developer	-11.3061
▁considerations	-11.3062
▁underline	-11.3064
▁victory	-11.3068
▁coordinators	-11.3069
▁vague	-11.3069
▁steam	-11.307
▁trustee	-11.3071
▁hydrogen	-11.3071
▁mff	-11.3074
ik	-11.3074
ani	-11.3076
▁dimensions	-11.3077
▁maps	-11.3086
ties	-11.309
▁nearby	-11.3093
▁certified	-11.3108
▁bishop	-11.311
▁minnesota	-11.3114
▁decline	-11.3121
▁choosing	-11.3123
▁canadian	-11.3131
tu	-11.3132
▁equations	-11.3132
mel	-11.3133
▁additionally	-11.3134
▁utility	-11.3136
▁gar	-11.3139
▁thirdly	-11.3141
▁arbitrary	-11.3142
▁twentieth	-11.3142
▁democrats	-11.3142
▁lowest	-11.3143
▁expanded	-11.3151
▁bone	-11.3152
▁schengen	-11.3155
▁bye	-11.3155
▁enhanced	-11.3157
▁perceived	-11.3159
▁resident	-11.316
▁transit	-11.316
▁constitute	-11.3162
▁hunt	-11.3163
▁altogether	-11.3163
▁deference	-11.3163
▁lists	-11.3172
▁meanwhile	-11.3174
▁reversed	-11.3176
▁eggs	-11.3176
▁attorneys	-11.3182
▁scheduled	-11.3184
▁entrance	-11.3188
rc	-11.3189
ett	-11.3192
▁fabric	-11.3194
▁axis	-11.3195
ice	-11.3199
▁withdrawal	-11.3199
▁minimal	-11.3199
▁maria	-11.3201
▁sch	-11.3203
▁rating	-11.3206
▁seats	-11.3207
▁anxious	-11.3208
▁strain	-11.3212
ara	-11.3216
▁likelihood	-11.322
▁periods	-11.3222
ean	-11.3224
▁administrator	-11.3224
form	-11.3224
▁viewed	-11.3228
gan	-11.323
▁seed	-11.3234
▁virus	-11.3235
▁resulting	-11.3235
▁limiting	-11.3236
▁statistical	-11.3239
▁obama	-11.3242
▁liable	-11.3249
▁brazil	-11.3253
▁passengers	-11.3253
▁defining	-11.3267
vis	-11.3269
▁interference	-11.3272
sp	-11.3283
▁yard	-11.3286
▁participated	-11.3288
▁passes	-11.3291
▁meal	-11.3291
▁empire	-11.3295
▁kit	-11.3299
▁jane	-11.33
▁vary	-11.3302
▁particles	-11.3304
ians	-11.3305
▁apparent	-11.3305
ack	-11.3305
▁darkness	-11.3309
▁insight	-11.331
ral	-11.3313
▁penalties	-11.3314
▁signals	-11.3315
mas	-11.3315
▁signature	-11.3317
▁reader	-11.3319
▁describing	-11.3321
ell	-11.3323
▁tick	-11.3323
▁rightly	-11.3323
▁cousin	-11.3325
▁subjective	-11.3328
▁scared	-11.3332
▁engineers	-11.3335
▁gathered	-11.3338
ily	-11.3339
▁contractor	-11.3343
▁brilliant	-11.3357
▁monthly	-11.336
▁questioning	-11.3361
▁los	-11.3362
▁electrical	-11.3363
ological	-11.3366
▁ads	-11.3368
pla	-11.337
▁responding	-11.3371
▁tons	-11.3371
▁ya	-11.3372
▁producer	-11.3377
▁obstacles	-11.3377
▁covid	-11.3377
▁reward	-11.3381
▁pit	-11.3391
▁flame	-11.3395
val	-11.3396
▁fallen	-11.3398
ivity	-11.3398
▁rush	-11.34
▁copies	-11.3401
ther	-11.3405
▁discretionary	-11.3409
▁wto	-11.3418
▁mechanical	-11.3419
▁jurisdictional	-11.3421
▁theories	-11.3429
▁alj	-11.3442
▁fortune	-11.3444
▁habit	-11.3448
ini	-11.3456
▁strictly	-11.3457
▁volunteer	-11.3458
pel	-11.3459
▁modify	-11.3466
▁loving	-11.3467
▁cream	-11.3475
▁flower	-11.3479
▁extract	-11.3479
▁puts	-11.348
ators	-11.3481
▁maui	-11.3481
▁muslim	-11.3489
ken	-11.3492
bon	-11.3492
▁affecting	-11.3494
▁unacceptable	-11.3497
▁pad	-11.3498
▁disclosed	-11.3505
▁foremost	-11.351
▁knock	-11.3514
▁remarkable	-11.3515
mus	-11.3518
▁fans	-11.3523
bc	-11.3523
▁marry	-11.3527
▁peaceful	-11.3528
▁rental	-11.3529
▁dignity	-11.3529
light	-11.3532
▁upcoming	-11.3536
▁ai	-11.3541
vert	-11.3542
sis	-11.3545
▁alongside	-11.355
▁mood	-11.3554
▁sons	-11.3555
▁intense	-11.3562
▁decides	-11.3564
▁slight	-11.3565
▁circular	-11.3569
▁aggressive	-11.357
▁exemption	-11.357
▁websites	-11.3573
▁directions	-11.3576
▁supplies	-11.3578
wing	-11.3582
▁fails	-11.3584
▁tube	-11.3585
▁fool	-11.3591
▁andrew	-11.3592
▁observations	-11.3594
▁tension	-11.3602
▁footnote	-11.3607
▁ears	-11.3609
▁alter	-11.361
▁locked	-11.3617
▁stores	-11.3617
hor	-11.362
▁taxpayer	-11.3622
eur	-11.3622
▁indigenous	-11.3622
press	-11.3623
▁occupied	-11.3623
cer	-11.3624
og	-11.363
▁habitat	-11.363
▁experiencing	-11.3631
▁conventional	-11.3631
▁debates	-11.3632
▁ip	-11.3634
▁sphere	-11.3636
cal	-11.3638
▁motions	-11.3639
▁des	-11.3642
▁desert	-11.3649
▁controller	-11.3649
▁skip	-11.3651
▁ticket	-11.3652
▁behave	-11.3653
▁alex	-11.3653
▁semi	-11.3656
▁focuses	-11.3657
▁acceptance	-11.3657
▁simplification	-11.3662
▁tables	-11.3662
▁beta	-11.3664
▁dam	-11.3666
▁variance	-11.3673
▁retired	-11.3673
▁scan	-11.3679
▁edition	-11.3684
▁islam	-11.3686
▁lifetime	-11.369
▁poly	-11.369
▁schemes	-11.369
▁trends	-11.3692
▁justification	-11.3693
▁operated	-11.3694
▁contributing	-11.3704
▁defending	-11.3705
▁sing	-11.3706
▁inspiration	-11.3707
▁signing	-11.3707
▁musical	-11.3708
▁preserved	-11.3708
▁spark	-11.3709
▁estimated	-11.3709
▁usage	-11.3713
▁petitions	-11.3716
▁ballot	-11.3721
▁curriculum	-11.3724
▁geo	-11.3726
▁irrelevant	-11.3727
▁excel	-11.3728
▁attacked	-11.3734
▁gradually	-11.3735
▁consistency	-11.3738
▁guaranteed	-11.374
▁fossil	-11.3742
▁individually	-11.3745
▁celebrate	-11.3746
▁prisoners	-11.3753
▁honey	-11.3756
ving	-11.3759
ld	-11.3763
ls	-11.3766
▁concentrate	-11.3768
rum	-11.3768
▁rear	-11.3773
▁bench	-11.3777
uck	-11.3789
▁beam	-11.3791
▁freely	-11.3792
▁fence	-11.3793
▁partnerships	-11.3793
▁chest	-11.3794
▁guilt	-11.3796
▁ambiguous	-11.3799
▁princess	-11.3801
▁fairness	-11.3801
▁unlawful	-11.3805
eight	-11.3805
▁fucking	-11.3809
cent	-11.381
▁pled	-11.3813
kar	-11.3817
▁parks	-11.3819
▁delighted	-11.3823
▁ray	-11.3823
gy	-11.3827
▁executed	-11.3831
▁harry	-11.3833
▁accepting	-11.3834
▁fuck	-11.3835
▁prominent	-11.3837
▁adam	-11.3842
▁rec	-11.3845
star	-11.3848
▁tears	-11.3854
▁stopping	-11.3855
▁spite	-11.3862
▁meta	-11.3865
▁declare	-11.3868
ette	-11.3868
ency	-11.387
▁posts	-11.3874
▁construct	-11.3874
ou	-11.3876
fil	-11.388
▁medication	-11.388
▁attach	-11.3882
▁minorities	-11.3885
▁delegated	-11.3887
cu	-11.3888
▁ecosystem	-11.3892
▁barrier	-11.3894
▁scratch	-11.3896
gate	-11.3897
▁bath	-11.3901
▁recognizing	-11.3901
nce	-11.3906
▁beside	-11.3909
▁terminated	-11.3909
▁publishing	-11.3909
▁horrible	-11.3912
▁examined	-11.3915
▁crash	-11.3915
▁plead	-11.3915
cker	-11.3918
▁unto	-11.3919
▁upgrade	-11.3921
rk	-11.3923
▁controversial	-11.3923
ock	-11.3929
▁classification	-11.393
▁soviet	-11.3933
dal	-11.3936
ash	-11.3945
▁biodiversity	-11.3946
▁strasbourg	-11.3946
lon	-11.3946
▁succeeded	-11.3946
▁tam	-11.3954
▁horn	-11.396
▁belt	-11.3963
▁ease	-11.3965
▁speculation	-11.3967
bit	-11.3968
mb	-11.3976
▁outstanding	-11.3978
▁aunt	-11.3985
▁holiday	-11.3988
▁aviation	-11.3988
▁meets	-11.3998
▁restricted	-11.4
▁inches	-11.4
ari	-11.4
▁juror	-11.4004
▁nonprofit	-11.4004
▁execute	-11.4005
▁bulk	-11.4007
win	-11.401
▁assign	-11.4016
▁meantime	-11.402
▁branches	-11.402
▁contacts	-11.4023
▁egg	-11.4028
▁childhood	-11.403
▁arrow	-11.4031
▁ver	-11.4033
nan	-11.4036
▁leap	-11.4044
▁hybrid	-11.4052
▁coordinated	-11.4056
▁medicare	-11.4057
pri	-11.4057
▁wash	-11.4066
▁jean	-11.4072
▁elementary	-11.4073
table	-11.4076
▁hero	-11.4078
▁commander	-11.4087
▁firms	-11.4087
▁shade	-11.4088
▁forgive	-11.4094
▁claimant	-11.4095
▁promises	-11.4096
▁motive	-11.4098
▁accordance	-11.4099
cul	-11.4099
▁ethnic	-11.4104
▁reopen	-11.4105
ologist	-11.4108
▁lands	-11.411
▁palace	-11.411
▁commissioners	-11.4121
▁replacement	-11.4121
▁standpoint	-11.4122
ened	-11.4122
▁matthew	-11.4129
▁hmm	-11.4129
▁denying	-11.4133
▁preferred	-11.4133
▁investigations	-11.4135
▁gut	-11.4143
▁causation	-11.4145
ella	-11.4147
▁chemicals	-11.4147
▁accountable	-11.4153
worth	-11.4155
▁fraudulent	-11.4157
▁remedies	-11.4159
▁slip	-11.4163
▁confidential	-11.4163
▁movies	-11.4166
▁organisation	-11.4167
▁salary	-11.4174
▁url	-11.4174
van	-11.4181
▁grey	-11.4182
▁vermont	-11.4187
▁portugal	-11.4189
ees	-11.4197
▁arc	-11.42
▁drain	-11.4201
▁attempting	-11.4205
▁raises	-11.4209
ston	-11.4213
▁presentations	-11.4215
▁shoe	-11.4215
▁departments	-11.4215
▁ja	-11.4215
ade	-11.4219
▁carl	-11.422
▁ke	-11.4221
▁instructed	-11.4221
▁purple	-11.4225
▁inspection	-11.4225
ane	-11.4226
▁dragon	-11.4227
▁mon	-11.4227
▁reactions	-11.4228
▁packet	-11.4231
▁threw	-11.4232
▁infer	-11.4232
▁volunteers	-11.4238
dar	-11.424
▁dare	-11.424
▁derived	-11.4241
ola	-11.4242
▁visitors	-11.4248
▁resort	-11.4253
▁waited	-11.4253
▁pale	-11.4257
▁overlap	-11.4261
▁explains	-11.4269
▁suicide	-11.427
nc	-11.4272
right	-11.4272
▁achievement	-11.4274
▁palestinian	-11.4274
▁cute	-11.4275
▁blessed	-11.4276
▁competing	-11.4279
▁owe	-11.4287
▁verify	-11.4289
▁cemetery	-11.4291
▁downtown	-11.4293
▁permits	-11.4293
▁directors	-11.4293
▁fiber	-11.4293
▁congressional	-11.4294
▁sovereignty	-11.4294
▁delivering	-11.4297
uri	-11.4303
▁editing	-11.4304
▁pc	-11.431
▁ecb	-11.4315
▁container	-11.4317
▁broker	-11.4319
▁apps	-11.4319
▁composed	-11.4319
▁paste	-11.4321
▁rod	-11.4326
▁chase	-11.4334
▁beneficiaries	-11.4338
▁lion	-11.4344
▁inventory	-11.4344
▁czech	-11.4345
▁wing	-11.4347
log	-11.4348
nu	-11.4349
▁tracking	-11.4354
▁hungarian	-11.4357
▁survival	-11.4362
▁isolated	-11.437
▁knee	-11.437
▁handed	-11.4371
▁th	-11.4371
▁throwing	-11.4378
▁occurring	-11.4379
▁occupation	-11.4395
▁whilst	-11.4396
▁shares	-11.4398
▁ec	-11.44
▁sto	-11.4402
▁translated	-11.4407
▁handled	-11.4409
▁viable	-11.4409
▁coalition	-11.4415
▁angel	-11.4416
▁suitable	-11.4416
pod	-11.4417
▁wedding	-11.4418
▁distress	-11.442
▁violate	-11.4421
▁breaks	-11.4423
▁scp	-11.4424
▁rocks	-11.4429
▁neighbor	-11.4432
▁acquired	-11.4433
▁cyprus	-11.4434
▁inappropriate	-11.4436
▁twentynine	-11.4437
▁corps	-11.4439
▁removing	-11.4441
▁sleeping	-11.4441
▁orientation	-11.4442
▁diagnosis	-11.4444
▁referendum	-11.4448
▁printed	-11.4451
wo	-11.4451
▁knife	-11.4451
▁turkish	-11.4456
▁hearts	-11.4456
clo	-11.4456
▁lips	-11.446
▁fate	-11.4462
pon	-11.4465
dale	-11.4467
▁unclear	-11.4469
▁captured	-11.4469
▁contractual	-11.4471
▁earned	-11.4473
▁prosperity	-11.4475
eu	-11.4477
▁rice	-11.4481
top	-11.4481
▁municipal	-11.4483
▁tan	-11.4485
▁advise	-11.4486
serv	-11.4486
onic	-11.4487
▁elaborate	-11.4487
▁inch	-11.4488
▁lifestyle	-11.4488
▁gdp	-11.449
rant	-11.4492
dra	-11.4493
▁preventing	-11.4495
▁simplify	-11.4495
▁collaborative	-11.4497
▁personality	-11.4502
mont	-11.4505
▁desired	-11.4511
rin	-11.4511
▁worthy	-11.4515
▁pursuing	-11.4516
▁jews	-11.452
▁dick	-11.4527
▁talent	-11.4529
▁supervisory	-11.4532
pur	-11.4538
▁churches	-11.4539
▁collections	-11.4542
▁sketch	-11.4545
▁compelling	-11.4546
▁allege	-11.4547
▁suck	-11.4547
▁tissue	-11.4552
bra	-11.4554
▁outset	-11.4561
▁aims	-11.4578
▁judiciary	-11.4584
oriented	-11.4584
▁matt	-11.4586
▁opt	-11.4588
rag	-11.459
▁holes	-11.4591
▁unfortunate	-11.4591
▁awards	-11.4596
▁territorial	-11.4596
▁patents	-11.4599
▁columns	-11.4599
▁cave	-11.4602
▁harvest	-11.4607
▁accommodate	-11.4611
bil	-11.4618
▁disposal	-11.4618
▁belongs	-11.4619
▁charging	-11.4626
▁cleaning	-11.4629
pen	-11.4635
▁monster	-11.4638
▁bulgaria	-11.4644
▁gosh	-11.4647
▁iraqi	-11.4649
mat	-11.4653
▁brick	-11.4654
▁shorter	-11.4657
▁bedroom	-11.4658
▁misconduct	-11.466
lia	-11.4662
▁safeguard	-11.4663
▁granting	-11.4668
ify	-11.4669
▁convictions	-11.467
▁asian	-11.4676
▁spec	-11.4678
▁situated	-11.468
▁parole	-11.4685
▁exceptional	-11.4686
run	-11.4687
▁cure	-11.4688
▁thirtythree	-11.4688
▁factory	-11.4691
gar	-11.4692
▁figured	-11.4692
rac	-11.4699
▁distribute	-11.4699
▁sooner	-11.4702
▁qualifications	-11.4702
▁sensible	-11.4704
▁flavor	-11.4704
▁sisters	-11.4704
lc	-11.4706
sky	-11.4708
▁crops	-11.4709
▁scenes	-11.4713
▁realm	-11.4718
▁historically	-11.4718
▁concert	-11.4726
▁photograph	-11.4727
▁forecast	-11.4729
▁detective	-11.4732
▁heal	-11.4734
▁begun	-11.4744
▁honorable	-11.4746
▁compound	-11.475
▁disk	-11.475
▁presumably	-11.4751
▁cooperative	-11.4751
▁barrel	-11.4753
▁verb	-11.4753
▁posting	-11.476
▁oregon	-11.4766
▁immigrants	-11.4766
▁hungry	-11.4772
▁lesser	-11.4772
▁nail	-11.4773
▁frequent	-11.4773
▁philip	-11.4776
▁rep	-11.4777
▁cancel	-11.4777
chin	-11.4786
▁productivity	-11.4787
▁tabled	-11.4791
▁thirtysix	-11.4793
▁fiftyfive	-11.4795
lib	-11.4796
air	-11.4799
▁premise	-11.4801
▁protective	-11.4803
ib	-11.4805
▁constructed	-11.481
▁hills	-11.4813
▁ep	-11.4821
▁accordingly	-11.4822
lie	-11.4824
▁duration	-11.4824
▁remark	-11.4829
▁offset	-11.483
war	-11.4832
▁cheese	-11.4834
▁disputes	-11.4837
▁nineteenth	-11.4837
▁diamond	-11.4841
▁installation	-11.4843
cus	-11.4848
▁madame	-11.485
▁drove	-11.4851
ria	-11.4851
▁physics	-11.4851
▁align	-11.4853
▁hyper	-11.4853
▁disappear	-11.4857
▁prevail	-11.4857
▁motivated	-11.4862
▁bind	-11.4863
▁ambiguity	-11.4864
▁ages	-11.4866
▁recipe	-11.4866
▁accomplished	-11.4866
oa	-11.4867
▁fda	-11.4869
▁macro	-11.4877
▁meter	-11.4882
ace	-11.4885
▁convey	-11.4885
▁belgium	-11.4889
▁headquarters	-11.4889
▁acquisition	-11.4889
bert	-11.4891
▁pdf	-11.4892
▁singing	-11.4894
qu	-11.4894
▁keys	-11.4895
▁shifting	-11.4897
morph	-11.4898
maker	-11.4898
▁sco	-11.49
▁measurement	-11.49
▁stressed	-11.4901
▁mitigation	-11.4906
▁weekly	-11.4908
▁compact	-11.4911
▁modification	-11.4913
▁priest	-11.4915
org	-11.4916
▁aimed	-11.492
▁satellite	-11.492
▁margin	-11.4921
▁robot	-11.4925
▁exclusively	-11.493
▁everyday	-11.493
▁assurance	-11.4932
▁interfere	-11.4934
▁sustain	-11.4936
▁firearm	-11.4936
▁pretend	-11.4936
bla	-11.4938
▁featured	-11.4939
▁drill	-11.4939
▁complain	-11.4944
▁terror	-11.4945
gri	-11.4946
▁unnecessary	-11.4949
▁tribal	-11.495
▁mindset	-11.4951
▁offenses	-11.4954
▁striking	-11.4954
▁roots	-11.4956
▁suspension	-11.4957
▁harassment	-11.4962
▁rat	-11.497
▁designated	-11.4974
cia	-11.4976
▁summarize	-11.4978
▁approached	-11.4978
▁reporter	-11.4983
▁regarded	-11.4987
▁ridiculous	-11.4987
▁magnetic	-11.4992
ica	-11.4995
▁thumbs	-11.4997
▁scholarship	-11.501
▁carrier	-11.5016
▁mentor	-11.5018
▁prevented	-11.5021
▁alignment	-11.5024
▁asks	-11.5024
din	-11.5025
▁satisfaction	-11.5025
▁che	-11.5026
▁leak	-11.5027
▁tune	-11.503
▁discount	-11.5038
uch	-11.504
▁backwards	-11.5048
▁tends	-11.5049
▁arch	-11.5051
▁recognise	-11.5051
▁clothing	-11.5052
▁jan	-11.5053
▁thorough	-11.5056
▁rubber	-11.5056
▁nowadays	-11.5059
▁phi	-11.5059
▁nest	-11.5064
▁birthday	-11.5064
▁governing	-11.5064
ole	-11.5064
bury	-11.5068
pers	-11.5069
nch	-11.5069
▁likewise	-11.5069
▁scrap	-11.507
▁hay	-11.5072
▁appropriately	-11.5073
▁mentioning	-11.5076
▁tier	-11.5078
ington	-11.5082
▁legacy	-11.5084
▁laundering	-11.5087
▁generous	-11.5087
▁cake	-11.5089
▁ninetyfive	-11.5089
▁jeff	-11.5091
▁lens	-11.5091
▁habeas	-11.5092
▁triangle	-11.5095
▁bump	-11.5095
▁cro	-11.5097
▁notified	-11.5105
▁val	-11.5109
▁occasionally	-11.511
▁restriction	-11.5113
▁announcement	-11.5116
▁experiments	-11.5119
▁woods	-11.5119
▁expanding	-11.5121
▁retaliation	-11.5131
▁threed	-11.5132
▁convergence	-11.5136
▁interactive	-11.5136
▁accuracy	-11.5141
▁poetry	-11.5147
▁palm	-11.5147
▁classical	-11.5148
utter	-11.515
▁progressive	-11.515
▁imagination	-11.5151
▁novo	-11.5152
▁painful	-11.5153
▁pal	-11.5159
▁tim	-11.516
▁adopting	-11.5162
▁constraints	-11.5165
▁reliance	-11.5167
▁sheep	-11.5173
▁ste	-11.5174
roy	-11.5174
▁magnitude	-11.5185
ita	-11.5187
▁stops	-11.5187
▁beef	-11.5187
▁govern	-11.519
und	-11.5194
▁europol	-11.5195
▁op	-11.5197
▁conceded	-11.5198
▁friendship	-11.52
▁assertion	-11.5202
▁exam	-11.5202
▁pressing	-11.5204
▁butter	-11.5204
▁asserted	-11.5204
▁mistaken	-11.5204
▁systematic	-11.5205
▁jurors	-11.5208
ras	-11.5211
pos	-11.5211
▁ethics	-11.5213
▁proceeds	-11.5218
▁obliged	-11.5219
▁interviews	-11.5222
▁infinity	-11.5224
▁contention	-11.5225
▁reinforce	-11.5228
▁punish	-11.5233
▁stating	-11.5233
▁adequately	-11.5235
▁wilson	-11.5237
poli	-11.5239
▁blah	-11.5243
▁coefficient	-11.5245
▁surprising	-11.5247
▁rationale	-11.525
▁breathe	-11.525
free	-11.5253
▁drafted	-11.5256
▁faithful	-11.5259
▁incidents	-11.5263
ew	-11.5264
▁shake	-11.5281
▁eric	-11.5283
▁convenient	-11.5284
▁smoking	-11.5286
▁surrounded	-11.5289
▁evident	-11.5291
▁measuring	-11.5292
▁sec	-11.5292
▁hint	-11.5296
ration	-11.5298
▁screening	-11.5303
app	-11.5307
▁eternal	-11.5307
water	-11.5312
era	-11.5312
▁laptop	-11.5313
▁approaching	-11.5315
▁moderate	-11.5317
ose	-11.5318
▁wolf	-11.5323
▁sentenced	-11.5328
▁logo	-11.5331
▁trademark	-11.5334
▁bars	-11.5336
▁subsidies	-11.5339
▁hiring	-11.5344
▁goodness	-11.535
▁touching	-11.5352
wick	-11.5353
▁shout	-11.5354
▁rarely	-11.5356
▁scenarios	-11.5357
▁supportive	-11.5357
▁controversy	-11.536
▁affirmed	-11.536
▁chapters	-11.5361
▁merchant	-11.5363
rio	-11.5364
▁deployment	-11.5366
▁elect	-11.5366
▁stamp	-11.5368
▁cheaper	-11.5368
▁hunting	-11.537
gram	-11.5375
▁compromises	-11.5378
▁revenues	-11.5378
▁hip	-11.5378
▁coastal	-11.5379
▁converted	-11.538
▁servant	-11.5386
rip	-11.5391
ski	-11.5391
▁spell	-11.5393
▁toxic	-11.5394
aba	-11.5395
▁preservation	-11.5397
▁prompt	-11.5399
gue	-11.5401
▁hospitals	-11.5407
▁dressed	-11.541
▁creature	-11.5411
▁disappointed	-11.5412
▁remembered	-11.5412
more	-11.5416
▁marketplace	-11.5422
▁sheriff	-11.5423
gui	-11.5429
▁clinic	-11.5429
▁diligence	-11.5434
▁prescription	-11.5434
▁chord	-11.5434
▁hitting	-11.5439
▁muscle	-11.544
▁kim	-11.544
ball	-11.5442
▁backup	-11.5444
▁exceed	-11.5447
▁clark	-11.5447
▁fortyeight	-11.5448
▁exploit	-11.5449
▁jar	-11.5451
▁divorce	-11.5454
▁foods	-11.5456
▁electron	-11.5458
▁presidential	-11.5458
▁allocated	-11.5459
▁profession	-11.5459
▁tu	-11.546
▁hol	-11.5463
▁disagreement	-11.5467
zz	-11.5467
▁compute	-11.5469
bound	-11.547
▁respondent	-11.5481
▁operates	-11.5488
▁listing	-11.5488
▁interim	-11.5491
▁independently	-11.5493
bin	-11.5495
▁parameter	-11.5498
ban	-11.5499
▁ruin	-11.55
▁lighting	-11.55
▁bin	-11.5503
▁founder	-11.5504
▁particle	-11.5505
▁influenced	-11.551
nn	-11.5511
▁anderson	-11.5516
mann	-11.5516
▁bubble	-11.5517
▁locally	-11.5518
ano	-11.5519
▁juncker	-11.5519
▁venue	-11.5519
▁badly	-11.552
yearold	-11.5521
par	-11.5522
▁shoulders	-11.5522
▁rotation	-11.5523
▁dump	-11.5526
nis	-11.5527
▁predicate	-11.5533
▁dozen	-11.5535
▁slave	-11.5535
▁cd	-11.5538
▁associations	-11.5538
rna	-11.5541
▁spray	-11.5541
▁chronic	-11.5541
▁characteristic	-11.5542
▁rap	-11.5544
▁abused	-11.5546
▁stepped	-11.5549
▁reveal	-11.555
tech	-11.5551
▁harmful	-11.5552
▁allies	-11.5563
iz	-11.5567
▁outer	-11.5569
▁memorial	-11.5576
▁nursing	-11.5578
ong	-11.5582
▁guitar	-11.5584
▁leaf	-11.5585
▁fold	-11.5586
▁spouse	-11.5586
ugh	-11.5588
▁consultant	-11.5591
▁seeds	-11.5597
▁partially	-11.5598
▁opponent	-11.5599
▁ryan	-11.5599
fra	-11.5603
▁adventure	-11.5606
▁mathematical	-11.5608
▁gravity	-11.5608
▁matches	-11.5609
▁receiver	-11.5609
▁manufacturer	-11.5612
▁buffer	-11.5613
▁updates	-11.5613
▁sophisticated	-11.5613
ese	-11.5617
▁collapse	-11.5618
▁columbia	-11.5619
▁louis	-11.5622
▁tweet	-11.5626
▁minimize	-11.5627
▁flu	-11.5628
▁notably	-11.5631
▁assignments	-11.5635
▁ceiling	-11.5635
▁comparing	-11.5638
▁beliefs	-11.5639
▁believes	-11.5641
yan	-11.5642
▁atlantic	-11.5643
▁passionate	-11.5644
▁promoted	-11.5644
gh	-11.5645
oid	-11.5646
▁riding	-11.5646
▁thrust	-11.5649
ok	-11.565
lor	-11.5652
▁tire	-11.5657
▁austria	-11.5661
hood	-11.5661
▁conducting	-11.5666
▁finds	-11.5666
rd	-11.5667
▁alarm	-11.5669
▁liquidity	-11.567
▁ij	-11.5672
▁secretariat	-11.5673
▁shipping	-11.5677
▁correlation	-11.5681
▁wellbeing	-11.5681
▁preference	-11.5682
▁emotion	-11.5683
▁brian	-11.5683
▁israeli	-11.5685
wit	-11.5685
▁steve	-11.5686
▁gi	-11.5695
▁hung	-11.5696
▁counting	-11.5699
▁economically	-11.57
▁complaining	-11.5701
▁anne	-11.5703
▁convincing	-11.5703
▁navigate	-11.5703
▁differential	-11.5705
test	-11.5714
▁bless	-11.5716
▁safely	-11.5722
▁sw	-11.5723
▁practically	-11.5727
▁tunnel	-11.5728
▁beneath	-11.5728
▁neat	-11.5731
▁decisionmaking	-11.5732
▁colorado	-11.5734
kan	-11.5735
▁organizing	-11.5736
▁interval	-11.5736
▁stroke	-11.5737
▁reconsider	-11.5738
▁recovered	-11.5738
▁electrons	-11.5745
▁punch	-11.5748
▁filling	-11.5748
▁token	-11.5751
▁visiting	-11.5752
▁complement	-11.5752
▁supervised	-11.5757
▁alternate	-11.5758
related	-11.5758
▁boards	-11.5758
▁inflation	-11.5759
bing	-11.576
▁efficiently	-11.5764
chan	-11.5767
▁disappeared	-11.577
▁intersection	-11.5771
▁bonus	-11.5772
▁cocaine	-11.5777
▁comparable	-11.5777
kh	-11.5779
▁sustained	-11.5783
▁cart	-11.5784
▁strikes	-11.5784
▁hop	-11.5784
rus	-11.5789
▁oer	-11.5792
▁elizabeth	-11.5794
▁kosovo	-11.5794
▁targeting	-11.5797
▁bother	-11.5798
▁possess	-11.5798
▁cam	-11.58
▁outlined	-11.5811
▁fri	-11.5813
▁specified	-11.5816
▁internally	-11.5817
▁indicator	-11.5817
ory	-11.5818
cor	-11.5819
▁wildlife	-11.5821
▁screw	-11.5821
▁duke	-11.5829
▁metadata	-11.5829
▁intensive	-11.583
▁thread	-11.583
▁static	-11.5832
▁zealand	-11.5832
▁sigma	-11.5835
▁directives	-11.5837
▁prohibited	-11.584
▁balancing	-11.584
▁rocket	-11.5841
unconstitutional	-11.5845
▁embrace	-11.5845
▁eligibility	-11.5846
▁gulf	-11.5846
pac	-11.5847
gel	-11.5849
vy	-11.585
▁polar	-11.585
▁pie	-11.5854
▁pricing	-11.5854
▁phones	-11.5858
ena	-11.586
▁burst	-11.5864
▁greenhouse	-11.5867
▁void	-11.5869
▁contents	-11.5871
oth	-11.5876
▁kelly	-11.5877
▁repository	-11.5879
▁containing	-11.588
▁estimates	-11.5881
▁classified	-11.5882
▁embedded	-11.5882
▁camps	-11.5883
▁hawaii	-11.5885
▁demonstration	-11.5887
ering	-11.5891
▁bur	-11.5891
▁pledge	-11.5893
▁revised	-11.5899
▁oppose	-11.5901
▁harbor	-11.5902
▁adapted	-11.5906
▁architect	-11.5907
▁interactions	-11.5914
part	-11.5916
▁bal	-11.5919
▁newspapers	-11.5919
▁completion	-11.5927
▁jet	-11.5928
▁croatia	-11.5928
▁mixture	-11.5929
ced	-11.5931
load	-11.5932
▁grievance	-11.5932
▁quantum	-11.5932
phy	-11.5934
▁inequality	-11.5935
▁corporations	-11.5938
▁poet	-11.5941
▁si	-11.5942
▁creek	-11.5946
▁textbook	-11.5948
▁grip	-11.5948
▁diplomatic	-11.5949
▁resist	-11.595
▁pound	-11.5953
▁breathing	-11.5953
▁restitution	-11.5954
▁seized	-11.5957
▁dirty	-11.5964
ome	-11.5969
▁passive	-11.5972
▁undertaken	-11.5974
▁lacking	-11.5978
▁mercy	-11.598
▁exploring	-11.5983
▁infinite	-11.5983
hen	-11.5984
▁reactor	-11.5985
▁buyers	-11.5987
▁chances	-11.5988
▁demographic	-11.5991
▁exempt	-11.5993
▁impressive	-11.5994
▁thereby	-11.5996
▁globally	-11.5996
▁totality	-11.5997
▁educate	-11.6007
▁beast	-11.601
▁produces	-11.6011
gor	-11.6011
▁molecules	-11.6016
▁radiation	-11.6016
▁sued	-11.6019
▁harris	-11.6024
▁globe	-11.6025
▁suspended	-11.6032
cp	-11.6034
▁stolen	-11.6035
▁cow	-11.6036
▁scotland	-11.6036
▁grandfather	-11.6039
tis	-11.6042
▁fur	-11.6043
▁blockchain	-11.6047
▁olaf	-11.6048
▁displayed	-11.6048
▁vietnam	-11.605
▁simon	-11.6052
mor	-11.6053
▁ski	-11.6056
▁santa	-11.6059
▁laboratory	-11.6062
▁disadvantage	-11.6064
▁lit	-11.6064
▁implied	-11.6064
▁flowing	-11.6069
life	-11.607
▁reminder	-11.6075
▁indicating	-11.6076
▁jacob	-11.6078
fish	-11.6084
▁medicines	-11.6084
▁attending	-11.6084
ata	-11.6084
▁newly	-11.6086
▁offender	-11.6087
▁bones	-11.6087
▁snap	-11.6091
▁powder	-11.6093
▁fishermen	-11.6093
▁ports	-11.6095
▁coherent	-11.6095
▁accompanied	-11.6097
▁retained	-11.6098
▁credits	-11.6103
▁template	-11.6105
▁commend	-11.6105
uk	-11.6107
▁routes	-11.6108
rating	-11.6109
vers	-11.611
▁contradiction	-11.6112
▁swift	-11.6113
▁thoroughly	-11.6113
nine	-11.6113
▁enabled	-11.6115
▁steady	-11.6116
▁examiner	-11.6117
▁swedish	-11.6118
▁hypothesis	-11.6124
▁trailer	-11.6125
▁retire	-11.6126
▁consult	-11.6128
▁relevance	-11.6129
▁catalog	-11.6132
▁desktop	-11.6132
▁tele	-11.6133
▁threatening	-11.6136
▁entertainment	-11.6138
▁phil	-11.614
ver	-11.6141
▁fascinating	-11.6141
▁receipt	-11.6141
▁inviting	-11.6144
▁portal	-11.6145
▁bare	-11.6146
▁saudi	-11.6146
▁prospect	-11.6148
▁yu	-11.6152
▁advised	-11.6153
▁vacation	-11.6153
var	-11.6156
fr	-11.6157
▁arrival	-11.6158
▁tangible	-11.6158
▁garage	-11.6159
low	-11.6159
▁gifts	-11.6162
▁wings	-11.6162
▁ties	-11.6166
▁deaf	-11.6166
▁consume	-11.6169
▁employ	-11.617
scale	-11.6172
▁subsection	-11.6172
▁inherent	-11.6173
tha	-11.6175
oma	-11.6177
▁angeles	-11.6178
▁assessed	-11.618
▁calculations	-11.6181
▁prisoner	-11.6182
cast	-11.6186
▁denmark	-11.6187
▁hiding	-11.6187
▁disregard	-11.6187
▁systemic	-11.6188
▁devoted	-11.6188
brook	-11.619
▁width	-11.6195
▁erred	-11.6196
▁juvenile	-11.6198
▁resume	-11.6201
▁hammer	-11.6207
▁harsh	-11.6208
▁patch	-11.6213
▁surplus	-11.6218
▁prima	-11.622
▁aggravated	-11.6225
▁willingness	-11.6234
▁rejection	-11.6235
▁retreat	-11.6237
▁mat	-11.6239
▁sl	-11.6242
▁cent	-11.6245
▁infection	-11.6245
▁petitioners	-11.6245
▁blade	-11.6245
▁firmly	-11.6248
▁agrees	-11.6249
▁boot	-11.625
▁drama	-11.6251
▁utilize	-11.6252
▁rendered	-11.6254
▁secrets	-11.6261
▁assumptions	-11.6267
▁oak	-11.6271
▁cooking	-11.6271
▁hack	-11.6271
ati	-11.6273
path	-11.6276
▁syrian	-11.6276
▁lean	-11.6281
▁dean	-11.6283
▁bathroom	-11.6284
▁cliff	-11.6289
▁prop	-11.6289
▁imports	-11.6293
▁lewis	-11.6293
▁parish	-11.6297
▁licenses	-11.6305
haw	-11.6309
▁crossed	-11.631
lu	-11.6311
▁fortytwo	-11.6311
born	-11.6317
▁pursued	-11.632
▁thirtyone	-11.6321
▁elderly	-11.6329
▁query	-11.634
list	-11.634
▁intensity	-11.6342
▁missouri	-11.6342
▁bite	-11.6344
▁unexpected	-11.6345
▁alice	-11.6348
▁slavery	-11.6349
▁salvation	-11.6351
▁streams	-11.6352
▁scary	-11.6356
▁bags	-11.6359
oo	-11.636
▁intermediate	-11.6363
▁ingredients	-11.6363
▁pig	-11.6363
▁evaluated	-11.6365
▁enforced	-11.6367
rig	-11.6368
▁theta	-11.637
del	-11.6372
▁deployed	-11.6373
▁relies	-11.6383
▁bipartisan	-11.6386
▁wording	-11.6388
▁confirmation	-11.6388
▁missile	-11.6396
▁specialized	-11.6399
▁mighty	-11.6403
▁perceive	-11.6409
▁keyboard	-11.6411
▁pm	-11.6412
▁greens	-11.6412
▁surrender	-11.6418
▁whit	-11.6427
▁anna	-11.643
▁worrying	-11.6433
lea	-11.6436
▁norway	-11.6441
▁confession	-11.6442
▁perspectives	-11.6444
▁processor	-11.6444
▁servants	-11.6445
▁cognitive	-11.6448
▁circuits	-11.6449
▁passport	-11.6449
▁generating	-11.6451
▁dip	-11.6451
▁phd	-11.6452
lock	-11.6453
tte	-11.6454
hir	-11.6456
ening	-11.6459
▁fuels	-11.646
▁directory	-11.6462
▁chemistry	-11.6462
▁sidewalk	-11.6463
▁workflow	-11.6468
▁authentic	-11.6475
▁wished	-11.6478
elect	-11.6479
▁creativity	-11.648
▁subtract	-11.6485
▁loaded	-11.6487
▁chains	-11.6489
▁crying	-11.6492
▁vibration	-11.6492
▁testament	-11.6495
▁earthquake	-11.6498
▁zones	-11.65
▁announce	-11.6503
wide	-11.6503
▁placement	-11.6506
▁uncomfortable	-11.6507
▁spare	-11.6511
▁foreclosure	-11.6512
▁forests	-11.6513
▁analyzed	-11.6515
▁decisive	-11.6518
▁survived	-11.6522
▁boats	-11.6523
▁lobby	-11.6525
▁thirtyfour	-11.6527
▁asleep	-11.6527
▁precious	-11.6527
▁laughed	-11.6528
▁officially	-11.6529
aka	-11.6531
vit	-11.6534
▁blessing	-11.6537
ene	-11.6539
▁vegetables	-11.6539
▁traders	-11.6542
cation	-11.6542
bal	-11.6546
▁constitutes	-11.6546
▁ombudsman	-11.6548
▁subsidiarity	-11.6548
person	-11.6552
▁presently	-11.6556
▁dossier	-11.6557
▁triggered	-11.656
▁quo	-11.6563
▁bears	-11.6564
▁energies	-11.6566
▁python	-11.6566
▁drum	-11.6566
▁quotas	-11.6569
▁reception	-11.6569
▁oldest	-11.6572
bel	-11.6573
▁modules	-11.6574
▁fiction	-11.6574
▁tricky	-11.6575
▁alexander	-11.6575
▁distant	-11.6578
▁insurer	-11.6581
▁campaigns	-11.6582
▁absorb	-11.6585
pas	-11.6586
▁horror	-11.6587
▁closest	-11.6588
▁undertaking	-11.6591
▁lamp	-11.6596
dis	-11.6597
▁winner	-11.6599
▁soldier	-11.6601
▁burlington	-11.6605
▁exhausted	-11.6605
▁exports	-11.661
▁swing	-11.6611
▁roadmap	-11.6611
wal	-11.6612
▁daughters	-11.6614
▁clearer	-11.6615
▁assured	-11.6616
▁arose	-11.6617
▁investor	-11.6626
▁tobacco	-11.6629
▁luc	-11.6631
▁mcc	-11.6632
▁stairs	-11.6634
▁lifted	-11.6634
▁baltic	-11.6635
▁whereby	-11.6636
▁bug	-11.6638
▁undertake	-11.6639
▁bucket	-11.6642
▁underway	-11.6644
▁cos	-11.665
▁cautious	-11.6653
▁bail	-11.6653
▁anchor	-11.6657
▁basketball	-11.6659
▁anticipate	-11.6659
▁treasure	-11.666
▁dc	-11.6661
▁functionality	-11.6662
▁bolt	-11.6666
▁proceeded	-11.6671
made	-11.6672
grad	-11.6675
▁metrics	-11.6675
▁assessing	-11.6676
▁abortion	-11.668
▁collaborate	-11.668
▁covidnineteen	-11.668
▁maryland	-11.6687
▁anytime	-11.6688
▁centuries	-11.6689
▁plausible	-11.6692
ments	-11.6694
▁mystery	-11.6695
▁thirtyeight	-11.6697
▁baker	-11.6699
▁widespread	-11.6701
rb	-11.6705
▁trials	-11.6706
▁feasible	-11.6707
put	-11.6708
rp	-11.6712
▁rein	-11.6713
▁companion	-11.6714
▁terrorists	-11.6717
▁contracting	-11.672
▁modest	-11.6724
▁billions	-11.6725
▁tendency	-11.6728
▁habits	-11.673
▁cultures	-11.6731
ue	-11.6731
▁myth	-11.6732
▁eightyfive	-11.6736
▁impacted	-11.6741
▁photographs	-11.6743
▁underscore	-11.6749
▁wars	-11.675
▁pra	-11.6752
▁dem	-11.6753
▁candle	-11.676
▁analogy	-11.6765
rist	-11.6768
▁gates	-11.6769
▁bas	-11.6769
▁tale	-11.6772
▁archive	-11.6773
▁hydro	-11.6774
▁abilities	-11.6776
▁designing	-11.6778
tric	-11.6782
▁guardian	-11.6782
▁declarations	-11.6784
▁hunter	-11.6784
▁journals	-11.6788
np	-11.6789
▁rub	-11.679
▁absurd	-11.6791
▁reaches	-11.6792
▁cabinet	-11.6796
▁instructor	-11.6798
▁rape	-11.6799
▁naught	-11.6801
▁restrict	-11.6802
atory	-11.6805
▁sanction	-11.6805
▁austerity	-11.681
▁airlines	-11.6811
▁feeding	-11.6814
▁sar	-11.6816
▁jam	-11.682
▁donald	-11.6823
▁scores	-11.6824
▁labels	-11.6825
▁easiest	-11.6825
cli	-11.6825
▁unanimous	-11.6826
▁pole	-11.683
▁traditionally	-11.683
▁sil	-11.6831
xi	-11.6836
ira	-11.6839
▁proactive	-11.684
▁clever	-11.684
level	-11.6841
▁thirtyseven	-11.6843
gro	-11.6848
▁erasmus	-11.6852
ched	-11.6853
▁delayed	-11.6855
▁pregnant	-11.6859
▁extending	-11.6859
gin	-11.6863
▁induce	-11.6865
▁allegedly	-11.6866
▁presents	-11.6867
▁strengthened	-11.687
ura	-11.687
▁meditation	-11.6871
▁eib	-11.6871
▁categorical	-11.6872
▁legend	-11.6877
▁resilience	-11.688
▁creator	-11.6881
▁engines	-11.6885
▁memories	-11.6886
▁colonel	-11.689
gla	-11.689
▁sins	-11.689
mic	-11.6891
▁objected	-11.6895
▁neighbourhood	-11.6895
gle	-11.6898
ela	-11.6898
▁lincoln	-11.6898
ray	-11.69
vol	-11.6902
▁blocked	-11.6903
▁bitter	-11.6908
▁licensing	-11.6908
▁requesting	-11.691
▁practicing	-11.6911
rie	-11.6911
▁inverse	-11.6912
▁exploitation	-11.6912
▁invalid	-11.6918
▁twist	-11.6919
▁cope	-11.692
▁titles	-11.6924
▁headed	-11.6931
▁honourable	-11.6932
▁defer	-11.6933
▁trash	-11.6933
▁timetable	-11.6938
▁vacuum	-11.6939
hill	-11.694
▁pe	-11.6944
▁dominant	-11.6945
point	-11.6946
▁bloom	-11.6948
▁deviation	-11.6948
▁climb	-11.6954
▁dramatically	-11.6961
bul	-11.6962
▁ceo	-11.6966
▁cloth	-11.6966
▁teaches	-11.6967
▁veteran	-11.6969
▁fourteenth	-11.6969
▁panic	-11.697
lab	-11.6976
▁huh	-11.6976
▁lip	-11.6977
▁indirect	-11.6978
▁recognizes	-11.6978
▁isolation	-11.6979
▁louisiana	-11.6982
▁navigation	-11.6982
▁jumping	-11.6982
▁lambda	-11.6982
▁notwithstanding	-11.6985
▁covenant	-11.6988
▁impressed	-11.6988
▁layout	-11.6993
uni	-11.6993
▁grasp	-11.6995
▁graduated	-11.6995
▁wound	-11.6996
▁cheer	-11.6997
▁bang	-11.7001
▁animation	-11.7007
▁vocal	-11.701
gging	-11.7012
▁luxembourg	-11.7016
▁reminded	-11.7018
▁steal	-11.702
▁aggregate	-11.702
▁theatre	-11.7022
flow	-11.7022
▁patrol	-11.7024
▁memorandum	-11.7025
▁pact	-11.7028
▁cotton	-11.7032
▁validity	-11.7032
▁shapes	-11.7035
▁equilibrium	-11.7035
▁ego	-11.704
bed	-11.7041
▁nutrition	-11.7041
▁finances	-11.7044
▁doubts	-11.7048
▁cameras	-11.705
▁berlin	-11.7052
hart	-11.7052
▁patience	-11.7053
▁gentle	-11.7057
▁serbia	-11.7059
▁misleading	-11.7062
keeper	-11.7063
▁enacted	-11.7065
▁safer	-11.7068
▁mapping	-11.7071
▁colombia	-11.7072
▁vaccine	-11.7074
▁geographical	-11.7078
▁mexican	-11.7082
▁sc	-11.7087
▁carries	-11.7088
▁psychology	-11.7088
lam	-11.709
▁arises	-11.7097
▁copper	-11.7098
▁analyzing	-11.71
▁laughing	-11.7101
▁mall	-11.7105
ifies	-11.7105
cin	-11.7106
mu	-11.7108
▁homework	-11.711
▁seminar	-11.711
▁acquire	-11.7111
ered	-11.7111
▁sequencing	-11.7113
▁remanded	-11.7113
▁strongest	-11.7115
▁sim	-11.7119
▁restoration	-11.7119
itu	-11.7122
gus	-11.7122
▁panels	-11.7126
▁sink	-11.7131
ua	-11.7132
▁entrepreneurs	-11.7132
▁reg	-11.7133
▁bend	-11.7134
met	-11.7136
▁respective	-11.714
▁overnight	-11.7157
▁governed	-11.7157
▁enjoying	-11.7161
▁painted	-11.7169
▁compatible	-11.717
scribe	-11.717
eo	-11.7172
▁lending	-11.7173
▁ph	-11.7181
▁rows	-11.7184
▁frontex	-11.7186
▁harmonization	-11.7189
▁korean	-11.719
▁tribes	-11.719
▁bent	-11.719
▁rico	-11.7191
▁communicating	-11.7192
▁compel	-11.7195
▁computing	-11.7195
▁margaret	-11.7195
burg	-11.7198
▁possessed	-11.7201
▁securities	-11.7208
▁scandal	-11.7209
▁biology	-11.7212
▁reconcile	-11.7214
▁confronted	-11.7216
▁damaged	-11.7216
▁poem	-11.7217
▁conditional	-11.7217
▁skilled	-11.7218
▁scar	-11.7219
▁champion	-11.7222
▁homeland	-11.7222
▁construed	-11.7222
▁designer	-11.7223
shire	-11.7223
▁imposing	-11.7227
▁suppress	-11.7228
▁barely	-11.723
▁republicans	-11.7234
▁fortyfour	-11.7234
ction	-11.7238
▁stomach	-11.7239
▁buyer	-11.7239
▁seizure	-11.7243
▁referenced	-11.7243
bor	-11.7245
▁corrupt	-11.7245
▁printing	-11.7246
nal	-11.7247
▁underground	-11.7248
▁evaluating	-11.7249
▁consolidation	-11.7255
▁reliability	-11.7258
▁deploy	-11.7261
▁sponsor	-11.7263
▁warming	-11.7265
▁abandon	-11.7266
▁caution	-11.7271
▁plugin	-11.7274
▁mitigate	-11.7274
▁triple	-11.7278
▁racism	-11.7278
▁sentiment	-11.7284
▁bargain	-11.7292
▁hazard	-11.7293
▁mature	-11.7293
▁algorithms	-11.7294
wise	-11.7294
▁exclaimed	-11.7295
iest	-11.7296
▁transfers	-11.7297
▁font	-11.7301
▁recycling	-11.7306
▁tennessee	-11.7306
▁territories	-11.7306
▁attraction	-11.7311
script	-11.7316
some	-11.7317
▁obey	-11.7321
▁bot	-11.7323
▁licensed	-11.7325
nne	-11.7329
▁denominator	-11.7332
▁lien	-11.7332
exp	-11.7333
▁visits	-11.7333
▁sixtyfour	-11.7335
▁highlights	-11.734
▁mars	-11.7341
▁cetera	-11.7345
ram	-11.7346
▁fortunate	-11.7352
▁mediation	-11.7357
▁laying	-11.7357
▁trucks	-11.7358
▁walker	-11.7358
▁packages	-11.7359
▁acres	-11.7361
▁commands	-11.7361
▁banana	-11.7362
▁arabia	-11.7364
▁pleadings	-11.7366
▁sacred	-11.7367
▁reservation	-11.7369
▁believing	-11.7371
▁sciences	-11.7371
▁essay	-11.7374
▁appoint	-11.7375
fall	-11.7376
▁defect	-11.7378
▁drives	-11.7383
▁chunk	-11.7384
bot	-11.7385
aki	-11.7397
▁interventions	-11.7398
ick	-11.7406
▁thompson	-11.7406
▁rope	-11.7408
▁arguably	-11.7413
▁closure	-11.7419
tch	-11.7421
▁avoiding	-11.7423
cept	-11.7423
▁ken	-11.7423
▁defines	-11.7424
▁intentionally	-11.7426
▁downward	-11.7427
▁remainder	-11.7429
▁thereafter	-11.7429
▁tackling	-11.7429
▁utmost	-11.7432
▁placing	-11.7432
▁readily	-11.7432
▁hits	-11.7433
link	-11.7435
▁multilateral	-11.7435
▁trains	-11.744
▁clay	-11.7441
▁nexus	-11.7442
▁singular	-11.7442
▁appealed	-11.7444
▁sits	-11.7445
▁grammar	-11.7445
▁edges	-11.7445
pol	-11.7447
comb	-11.7447
▁shower	-11.745
▁internationally	-11.7451
▁contractors	-11.7451
▁specialist	-11.7451
▁ali	-11.7453
▁breed	-11.7455
▁dairy	-11.7455
▁spots	-11.7457
▁appreciated	-11.7457
▁ceremony	-11.7458
▁articulated	-11.7464
stra	-11.7469
▁ser	-11.7469
▁vocational	-11.7472
▁excellence	-11.7474
▁faint	-11.7475
▁lover	-11.7475
▁gym	-11.7479
▁offensive	-11.7481
▁bases	-11.7481
▁simultaneously	-11.7483
wind	-11.7484
▁voluntarily	-11.7487
▁overseas	-11.7491
▁sadly	-11.7494
▁immune	-11.7497
▁twentyfirst	-11.7497
▁scripture	-11.7498
▁molecule	-11.7501
▁golf	-11.7503
▁bacteria	-11.7508
▁wounded	-11.7508
▁demanding	-11.7512
▁blocking	-11.7513
▁stimulate	-11.7513
▁stepping	-11.7515
▁evolve	-11.7515
▁mud	-11.7517
▁lawful	-11.752
▁kings	-11.7523
▁contempt	-11.7523
▁barred	-11.7524
▁arising	-11.7527
▁dublin	-11.7533
▁postal	-11.7533
▁dave	-11.7535
▁midst	-11.7537
▁eager	-11.7541
▁episodes	-11.7542
rian	-11.7543
▁gamma	-11.7543
▁colleges	-11.7545
▁archives	-11.7557
▁matching	-11.7558
▁exercises	-11.7559
▁grams	-11.756
▁declined	-11.7563
▁secured	-11.7566
▁norm	-11.7566
▁cord	-11.7566
▁unlikely	-11.7567
▁profound	-11.7567
▁mississippi	-11.7573
power	-11.7573
▁makers	-11.7574
▁clue	-11.7576
▁creditors	-11.7577
▁burned	-11.7577
bble	-11.7582
▁cattle	-11.7583
▁equipped	-11.7586
▁librarian	-11.7588
▁cab	-11.7593
▁blast	-11.7594
ama	-11.7594
▁ross	-11.7594
▁cube	-11.7601
▁sheets	-11.7601
hl	-11.7601
▁pillars	-11.7603
▁continuously	-11.7604
▁defenders	-11.7606
▁dec	-11.7606
▁counted	-11.7607
▁civilization	-11.7608
▁emperor	-11.7612
▁codes	-11.7613
▁alabama	-11.7615
▁anniversary	-11.7615
▁deliberately	-11.7617
▁facial	-11.7619
▁fatal	-11.7621
sia	-11.7621
▁charity	-11.7622
sey	-11.7622
▁evolved	-11.7624
▁finland	-11.7629
ith	-11.7632
▁switzerland	-11.7635
▁premises	-11.7636
▁outdoor	-11.7636
▁relax	-11.7639
▁delicate	-11.7642
▁inadequate	-11.7642
▁aligned	-11.7642
▁journalist	-11.7648
▁barn	-11.7648
lessly	-11.7648
▁ash	-11.7649
▁snake	-11.7655
▁demonstrates	-11.7658
lum	-11.7658
ges	-11.7659
▁dancing	-11.7659
▁nearest	-11.766
▁writers	-11.766
▁clinton	-11.7662
▁stipulation	-11.7662
▁chaos	-11.7666
▁corners	-11.7667
▁rivers	-11.7669
▁fifteenth	-11.7672
▁nicely	-11.7676
▁defeated	-11.7681
ching	-11.7681
▁pharmaceutical	-11.7688
▁collectively	-11.7688
▁hunger	-11.7692
▁reiterate	-11.7697
▁envelope	-11.7698
ele	-11.7704
▁delays	-11.7707
oli	-11.7711
▁themes	-11.7713
▁francisco	-11.7716
▁bass	-11.7716
▁interpreting	-11.7718
▁ukrainian	-11.7722
▁clouds	-11.7723
▁dictionary	-11.7725
▁fears	-11.7729
far	-11.7735
sie	-11.7737
▁reset	-11.7739
▁modes	-11.774
▁dose	-11.7743
▁stance	-11.7746
ku	-11.7748
▁appreciation	-11.7748
▁pepper	-11.775
▁emission	-11.7751
▁instantly	-11.7751
▁scholars	-11.7752
▁kennedy	-11.7755
borough	-11.7758
▁pastor	-11.7759
▁initiated	-11.7762
▁oath	-11.7764
▁simulation	-11.7765
ili	-11.7768
▁chocolate	-11.7775
▁inputs	-11.7778
▁humble	-11.7779
▁albert	-11.7779
▁workshops	-11.7783
ien	-11.7784
▁guards	-11.7789
▁batteries	-11.7796
▁traditions	-11.7796
▁intentions	-11.7796
nov	-11.7797
▁creatures	-11.7798
▁withdrawn	-11.7798
▁frozen	-11.7802
▁argues	-11.7805
▁behaviour	-11.7805
▁multiplied	-11.7805
▁bore	-11.7806
▁freedoms	-11.7808
▁islamic	-11.7813
uz	-11.7815
▁pond	-11.7818
▁purchasing	-11.7819
▁iowa	-11.7819
▁terminate	-11.7828
hand	-11.7829
▁hurry	-11.7832
az	-11.7835
▁mali	-11.7838
▁regulators	-11.7844
▁arranged	-11.7846
▁float	-11.7846
▁galaxy	-11.7849
lac	-11.7851
▁epi	-11.7855
▁twelfth	-11.7859
▁glance	-11.7865
▁basket	-11.7866
▁counties	-11.7867
▁circles	-11.7868
▁refresh	-11.7869
▁residual	-11.787
▁figuring	-11.787
▁reuse	-11.7872
▁html	-11.7873
▁medicaid	-11.7873
▁moore	-11.7875
▁quoted	-11.7876
▁civic	-11.7876
▁combating	-11.7877
▁dun	-11.7878
pot	-11.7878
▁simplified	-11.788
▁interrupt	-11.7882
▁baseball	-11.7884
▁shine	-11.7884
▁tear	-11.7885
ifying	-11.7885
▁vat	-11.7886
▁carriage	-11.7887
nk	-11.7888
▁duck	-11.7891
fc	-11.7896
▁occurrence	-11.7897
▁stones	-11.7898
ode	-11.7898
▁mathematics	-11.79
▁tolerance	-11.79
ali	-11.7902
▁coordinator	-11.7905
och	-11.7908
▁adaptation	-11.7909
▁sends	-11.7909
▁eco	-11.7917
pha	-11.792
▁kevin	-11.7922
▁stranger	-11.7924
▁crises	-11.7924
▁gaming	-11.7924
sk	-11.7925
▁gen	-11.7926
▁medal	-11.7926
▁fortunately	-11.7926
lis	-11.793
▁valve	-11.7933
▁null	-11.7935
▁optional	-11.7935
▁belonging	-11.7937
▁floating	-11.7938
▁entirety	-11.7938
▁anticipated	-11.7941
▁fulfilled	-11.7945
▁authorize	-11.7946
▁hoped	-11.7946
mes	-11.7949
▁dumb	-11.795
▁coherence	-11.7951
▁dev	-11.7952
▁attachment	-11.7954
▁basin	-11.7954
▁oftentimes	-11.7955
▁deco	-11.7955
▁forming	-11.7958
▁seller	-11.7958
▁publications	-11.7958
▁kilometers	-11.7975
▁pardon	-11.7979
ost	-11.7985
▁characterized	-11.7988
▁neglect	-11.7988
▁correction	-11.7989
▁guides	-11.799
▁cheek	-11.7993
▁restrictive	-11.7993
▁texts	-11.7993
iness	-11.7993
▁reversal	-11.7996
step	-11.7998
▁confess	-11.7999
▁crypto	-11.7999
▁mainstream	-11.8
▁wireless	-11.8
▁dynamics	-11.8002
▁sergeant	-11.8003
▁buck	-11.8006
▁disasters	-11.8006
▁lad	-11.8009
▁tolling	-11.8009
▁illustration	-11.8009
▁optimistic	-11.801
▁jacket	-11.801
▁stephen	-11.8012
▁affiliate	-11.8012
cru	-11.8012
▁corrections	-11.8014
▁paragraphs	-11.8016
▁scientist	-11.802
▁ramp	-11.802
▁socialist	-11.8023
▁mild	-11.8024
oon	-11.8027
▁fruits	-11.8029
▁openly	-11.8029
▁respecting	-11.8029
▁powerpoint	-11.8029
▁brutal	-11.8031
▁libe	-11.8034
▁breakdown	-11.8035
▁baseline	-11.8037
▁orbit	-11.8037
▁loves	-11.8039
▁farther	-11.8041
▁peculiar	-11.8047
▁renewed	-11.8048
▁neighboring	-11.8049
▁avoided	-11.805
▁legitimacy	-11.8051
▁responsive	-11.8051
▁fires	-11.8055
db	-11.8057
▁hostile	-11.8059
▁lamb	-11.8063
▁ren	-11.8064
▁appearing	-11.8066
▁detain	-11.8068
rid	-11.8071
kay	-11.8072
▁singer	-11.8073
▁expressing	-11.8073
▁rolled	-11.8077
▁wheels	-11.8077
▁eighteenth	-11.8079
yer	-11.808
▁experimental	-11.8082
▁morocco	-11.8082
▁conscience	-11.8082
▁girlfriend	-11.8082
▁jerusalem	-11.8085
▁dropping	-11.8088
▁participant	-11.8091
oe	-11.8092
▁cats	-11.8093
cat	-11.8095
dp	-11.8096
nor	-11.8096
▁nodes	-11.8097
lk	-11.8101
▁rotate	-11.8103
▁recession	-11.8104
▁pokemon	-11.8106
▁contemporary	-11.811
▁gratitude	-11.811
▁weaknesses	-11.8112
quin	-11.8112
▁appropriations	-11.8115
▁sometime	-11.8121
▁presume	-11.8123
▁financially	-11.8128
▁lieutenant	-11.813
▁tragic	-11.8131
▁fitness	-11.8133
▁innocence	-11.8134
▁accidents	-11.8137
▁implies	-11.8137
▁investigating	-11.8137
▁literacy	-11.8137
room	-11.8138
▁dots	-11.8138
▁ward	-11.8139
▁pressed	-11.8148
▁puzzle	-11.8151
▁tragedy	-11.8151
▁rulings	-11.8157
▁outreach	-11.8158
▁mit	-11.816
▁mic	-11.816
ori	-11.816
hold	-11.816
eng	-11.8165
▁adjacent	-11.8165
▁lengthy	-11.8166
▁eliminated	-11.817
ova	-11.8171
▁accurately	-11.8174
▁drafting	-11.8174
▁committing	-11.8174
lash	-11.8175
▁seeks	-11.8185
▁bundle	-11.8186
▁shots	-11.8192
▁documented	-11.8192
▁learners	-11.8192
▁pornography	-11.8197
▁gil	-11.8202
▁sudan	-11.8204
gene	-11.8204
▁renew	-11.8209
▁formally	-11.821
▁freeze	-11.8211
▁instinct	-11.8211
▁retention	-11.8211
▁exhaust	-11.8213
dr	-11.8214
▁processed	-11.8214
▁wondered	-11.8217
▁foundations	-11.8217
▁sorrow	-11.8218
▁moot	-11.8218
rib	-11.8223
aver	-11.8223
▁knees	-11.8224
burn	-11.8226
ces	-11.8226
▁measurements	-11.8228
▁blanket	-11.8232
▁southeast	-11.8232
▁concludes	-11.8233
▁cotwo	-11.8234
▁theft	-11.8235
ula	-11.8238
hur	-11.8239
▁shed	-11.8241
▁tournament	-11.8242
▁sensor	-11.8242
▁revisit	-11.8246
▁interviewed	-11.8247
▁drunk	-11.8248
▁quiz	-11.8249
▁jumped	-11.8256
bol	-11.8257
▁kiss	-11.8259
▁simpler	-11.8261
▁psycho	-11.8267
vic	-11.8268
▁excitement	-11.8271
▁supposedly	-11.8272
▁spirits	-11.8276
▁exploration	-11.8278
▁fiduciary	-11.8278
▁pioneer	-11.8278
▁pity	-11.8278
▁sine	-11.8286
▁curse	-11.8287
▁silly	-11.8287
▁poster	-11.8291
▁amy	-11.8291
yn	-11.8292
▁loading	-11.8294
▁designs	-11.83
▁enabling	-11.8302
▁mechanics	-11.8307
▁swap	-11.8308
▁temper	-11.8308
▁annex	-11.831
ular	-11.831
▁muslims	-11.8311
▁demanded	-11.8311
▁continually	-11.8315
▁swim	-11.832
▁democrat	-11.8321
▁deprived	-11.8324
▁shortterm	-11.8325
▁treasury	-11.8327
▁tunisia	-11.8329
▁linux	-11.8331
▁sweat	-11.8331
▁quarters	-11.8336
▁inventor	-11.8337
▁dim	-11.8337
▁decree	-11.834
ware	-11.8341
▁generator	-11.8341
▁lighter	-11.8343
▁attracted	-11.8346
▁footage	-11.8349
▁weakness	-11.8353
▁warn	-11.8357
▁environments	-11.8358
▁counselor	-11.8359
▁diabetes	-11.8359
glo	-11.836
▁indians	-11.8362
▁analog	-11.8364
▁reign	-11.8368
▁prohibition	-11.8372
▁expired	-11.8373
play	-11.8374
ically	-11.8375
▁insane	-11.8378
▁shifted	-11.8378
▁dense	-11.8378
▁posed	-11.8378
▁northwest	-11.8384
▁competitors	-11.8384
▁atoms	-11.8386
▁visibility	-11.8388
▁radius	-11.8388
▁invented	-11.8391
▁yourselves	-11.8391
▁refund	-11.8392
▁sticking	-11.84
col	-11.8401
▁pursuit	-11.8402
▁gallery	-11.8402
▁attribute	-11.8403
ography	-11.8408
▁drift	-11.8409
mir	-11.841
▁limb	-11.8411
▁comma	-11.8419
▁merger	-11.8422
eva	-11.8423
▁malta	-11.8424
▁binary	-11.8424
ila	-11.8427
▁exchanges	-11.8428
▁slice	-11.8429
▁bureaucracy	-11.8434
▁donor	-11.8438
▁enables	-11.8438
▁stimulus	-11.8441
▁quantities	-11.8441
▁olympic	-11.8445
▁satisfactory	-11.8445
▁danish	-11.8446
▁recreation	-11.8446
▁inspector	-11.8448
▁badge	-11.8448
▁trusted	-11.8449
cap	-11.845
rich	-11.8453
▁colon	-11.8454
▁balkans	-11.8455
▁pretrial	-11.8456
ima	-11.8462
▁rival	-11.847
▁municipality	-11.8471
▁arena	-11.8472
▁readers	-11.8474
▁throat	-11.8475
▁gal	-11.8475
▁dating	-11.8476
gress	-11.8476
▁beating	-11.8479
▁spreading	-11.848
▁modeling	-11.8483
▁receives	-11.8487
▁endeavor	-11.8488
▁celebration	-11.8488
▁heating	-11.8489
▁hosted	-11.8489
▁deserves	-11.8491
▁threaten	-11.8491
chen	-11.8492
▁maker	-11.8492
▁exert	-11.8493
▁organised	-11.8494
▁alaska	-11.8494
▁safeguards	-11.8494
▁unlock	-11.8497
▁selecting	-11.8499
▁theoretical	-11.8501
▁realise	-11.8503
▁graphic	-11.8503
▁deaths	-11.8504
dimensional	-11.8504
▁variants	-11.8505
▁quest	-11.8507
▁oecd	-11.851
▁imported	-11.8514
ancy	-11.8518
▁physicians	-11.8523
▁holistic	-11.8524
ches	-11.8525
▁attacking	-11.8527
▁questioned	-11.8527
▁adjustments	-11.8527
▁appellee	-11.8531
▁explosion	-11.8539
▁communist	-11.8539
▁deadly	-11.8541
▁makeup	-11.8541
▁angels	-11.8545
▁frustration	-11.8553
▁revelation	-11.8553
▁gains	-11.8554
▁dish	-11.8555
▁fled	-11.8555
▁selectmen	-11.8557
▁las	-11.856
▁donors	-11.856
▁investigated	-11.8564
une	-11.8566
▁fortyseven	-11.8566
berry	-11.8568
▁thumb	-11.8569
▁worn	-11.8571
rah	-11.8573
zy	-11.8573
▁applicants	-11.8574
▁uncertain	-11.8574
▁fond	-11.8574
▁considerably	-11.8582
▁steep	-11.8583
▁scholar	-11.8588
nit	-11.8589
cb	-11.8593
▁achievements	-11.8593
wan	-11.8594
▁emerged	-11.8594
ants	-11.8598
▁optimize	-11.86
▁examining	-11.8608
iti	-11.861
▁restored	-11.861
▁useless	-11.8612
▁gallon	-11.8615
▁counseling	-11.8619
▁slaves	-11.8622
mut	-11.8622
▁chill	-11.8625
▁fiftysix	-11.8626
▁compliment	-11.8626
▁javascript	-11.8626
▁sellers	-11.8632
▁concentrated	-11.8635
▁complied	-11.8637
▁couch	-11.8638
▁waive	-11.8639
▁sensation	-11.8641
dor	-11.8641
▁seated	-11.8642
▁thirtynine	-11.8651
▁unprecedented	-11.8652
▁corridor	-11.8654
▁fbi	-11.866
▁usa	-11.866
▁tumor	-11.8663
▁contradict	-11.8663
▁eas	-11.8666
▁prejudicial	-11.8666
▁cites	-11.8668
▁grows	-11.8668
ato	-11.8672
▁condemn	-11.8673
▁furniture	-11.8674
▁briefed	-11.8676
▁adds	-11.8677
▁critically	-11.8677
▁irregular	-11.8677
▁reckless	-11.8683
▁notable	-11.8684
minded	-11.8686
▁preclude	-11.8688
▁qualities	-11.8688
▁guided	-11.8693
▁morgan	-11.8695
▁atom	-11.87
▁hearsay	-11.8703
▁plainly	-11.8706
▁nick	-11.8709
▁gesture	-11.8714
▁egyptian	-11.8719
▁urgency	-11.8729
▁kong	-11.8729
liter	-11.8731
ase	-11.8732
▁oversee	-11.8734
▁neuro	-11.8735
▁poison	-11.8739
zar	-11.874
▁thunder	-11.874
▁exhaustion	-11.8741
▁openness	-11.8744
▁frames	-11.8745
▁critics	-11.8745
▁governmental	-11.8746
▁reserved	-11.8747
▁ratification	-11.8748
▁derive	-11.8748
▁behaviors	-11.8748
▁fortythree	-11.8749
▁boring	-11.8754
▁strand	-11.8755
▁rabbit	-11.8755
▁extensively	-11.8761
▁acceleration	-11.8762
▁susan	-11.8764
radi	-11.8765
pan	-11.8768
lp	-11.8769
▁tuned	-11.8769
▁broadband	-11.877
▁dawn	-11.877
card	-11.8772
▁symbols	-11.8773
▁vitamin	-11.8777
▁boil	-11.8777
▁nigeria	-11.8779
▁temperatures	-11.8782
odo	-11.8784
▁detection	-11.8786
▁bun	-11.8787
▁streaming	-11.8787
▁followers	-11.8789
▁quietly	-11.8789
▁arctic	-11.8793
▁preferences	-11.8795
▁armor	-11.8795
nia	-11.8798
▁pretext	-11.88
ule	-11.88
▁wholly	-11.88
flo	-11.8801
▁wore	-11.8802
▁monies	-11.8804
holder	-11.8806
▁coins	-11.8807
▁ultra	-11.8807
cause	-11.8808
arian	-11.8808
▁impairment	-11.8811
▁economics	-11.8812
hel	-11.8817
▁negligent	-11.8818
▁advisor	-11.8819
▁hong	-11.8819
▁kernel	-11.8822
▁undo	-11.8823
▁sur	-11.8823
ika	-11.8829
▁sizes	-11.8829
▁inspire	-11.8833
▁constituents	-11.8835
nate	-11.8839
▁researcher	-11.8839
▁lately	-11.8841
▁reflecting	-11.8842
rri	-11.8842
▁metro	-11.8842
▁issuing	-11.8844
▁hosting	-11.8853
▁belarus	-11.8855
▁invasion	-11.8855
▁grades	-11.8856
lton	-11.8858
misunderstanding	-11.8858
▁proving	-11.8861
▁hardship	-11.8862
▁restaurants	-11.8863
▁gro	-11.8868
▁alt	-11.8868
▁stadium	-11.887
▁suspicious	-11.887
▁searches	-11.8871
▁connecticut	-11.8874
▁pizza	-11.8874
▁umbrella	-11.8878
▁viewing	-11.8886
▁consequently	-11.8889
▁beg	-11.889
▁notifications	-11.8892
▁convenience	-11.8893
▁elephant	-11.8893
▁reimbursement	-11.8893
▁ecological	-11.8893
▁bucks	-11.8894
▁quotes	-11.89
vid	-11.89
▁dumping	-11.89
▁encountered	-11.8901
▁attributes	-11.8906
▁disrupt	-11.8909
▁thirtieth	-11.8911
▁conjunction	-11.8911
▁championship	-11.8912
▁shortage	-11.8913
▁capacities	-11.8915
▁footprint	-11.8915
▁allowance	-11.8918
▁concluding	-11.8919
▁trillion	-11.8923
ality	-11.8926
▁conform	-11.893
▁guiding	-11.893
▁subjected	-11.893
▁lag	-11.8932
▁designation	-11.8933
▁swimming	-11.8934
▁pairs	-11.8937
▁pathway	-11.8938
▁subscribers	-11.8938
▁neighborhoods	-11.8939
▁viewers	-11.894
▁varies	-11.8941
▁landlord	-11.8945
▁articulate	-11.8946
▁piano	-11.8946
hoo	-11.8946
▁pine	-11.8947
▁swear	-11.8949
▁disposition	-11.8949
▁automated	-11.895
▁sauce	-11.8953
▁establishes	-11.8956
▁estoppel	-11.8957
▁subpoena	-11.8957
▁unhappy	-11.8957
▁welcomed	-11.8959
▁irs	-11.8959
▁contested	-11.8963
▁exhibition	-11.8963
▁fortyone	-11.8964
▁juice	-11.8968
umb	-11.8968
▁lap	-11.8969
▁financed	-11.8971
▁colored	-11.8971
▁reconciliation	-11.8972
▁airplane	-11.8972
▁trips	-11.8976
▁owed	-11.8977
hawk	-11.898
▁gre	-11.8981
▁trim	-11.8981
▁courtroom	-11.8986
ale	-11.8989
kins	-11.8992
▁posture	-11.8992
▁outlet	-11.8992
▁smallest	-11.8993
▁monument	-11.8994
▁violating	-11.8994
▁carter	-11.8995
▁lodge	-11.9002
▁attendance	-11.9003
▁dart	-11.9004
▁hug	-11.9005
▁hurricane	-11.9006
▁portions	-11.901
▁frustrated	-11.9016
▁memo	-11.9021
▁imply	-11.9021
ora	-11.9022
▁statue	-11.9025
▁inferences	-11.9025
▁github	-11.9029
▁grandmother	-11.9029
▁transpose	-11.9036
ight	-11.9038
▁founding	-11.904
▁forfeiture	-11.904
▁causal	-11.904
▁homeless	-11.9044
▁printer	-11.9046
ami	-11.9048
▁shelf	-11.9051
▁commonwealth	-11.9051
▁injustice	-11.9051
▁ninetys	-11.9053
cca	-11.9053
▁ugly	-11.9054
rn	-11.9055
gal	-11.9055
▁auction	-11.9059
▁citations	-11.9059
▁marginal	-11.906
▁pros	-11.906
▁fortynine	-11.9065
▁consulting	-11.907
▁subset	-11.9071
▁compelled	-11.9071
▁federation	-11.9074
▁impulse	-11.9074
▁inhabitants	-11.9078
quar	-11.9078
mis	-11.908
▁subtle	-11.908
▁analytics	-11.9081
▁honored	-11.9085
bro	-11.9086
▁remit	-11.9087
▁premier	-11.909
▁collector	-11.909
▁rust	-11.9091
▁writes	-11.9095
▁repeating	-11.9098
▁fiftyone	-11.9102
▁coding	-11.9105
▁spill	-11.9106
▁spreadsheet	-11.9109
▁bounce	-11.9109
▁lightning	-11.911
▁quota	-11.9113
zen	-11.9113
▁casual	-11.9116
▁replacing	-11.9116
▁automobile	-11.912
▁insult	-11.9121
ml	-11.9122
▁squeeze	-11.9124
▁shook	-11.9124
▁amen	-11.9126
▁verification	-11.9128
▁resolutions	-11.9132
▁gall	-11.9132
▁strive	-11.9136
▁congressman	-11.9136
▁reserves	-11.9136
▁realizing	-11.9139
▁eve	-11.914
▁mega	-11.9143
▁drops	-11.9148
▁hood	-11.9149
▁carriers	-11.9154
▁arthur	-11.9156
▁recruit	-11.9156
ava	-11.9156
▁walks	-11.9157
▁wooden	-11.9157
▁loads	-11.9159
▁preview	-11.916
▁bark	-11.9162
▁variant	-11.9164
▁opens	-11.9164
eff	-11.9166
▁borrow	-11.9166
▁appellants	-11.9167
▁raid	-11.9171
▁profitable	-11.9177
▁punitive	-11.9178
▁smiling	-11.9178
▁christianity	-11.9178
▁peers	-11.918
▁franchise	-11.9182
por	-11.9184
tus	-11.9184
▁insights	-11.919
▁syndrome	-11.919
▁autonomous	-11.9197
▁babies	-11.9197
▁rigid	-11.9197
▁wallet	-11.9198
▁maximize	-11.9198
▁banned	-11.9198
▁aging	-11.9199
tc	-11.9199
ulation	-11.9201
▁fred	-11.9201
▁nomination	-11.9201
▁cod	-11.9203
▁continuation	-11.9205
▁quicker	-11.9206
▁inclined	-11.9209
▁unified	-11.921
▁cumulative	-11.9213
▁prediction	-11.9217
read	-11.9218
▁lectures	-11.9219
▁catalyst	-11.9221
▁elite	-11.9222
▁cache	-11.9229
valu	-11.923
▁rhetoric	-11.9232
▁silicon	-11.9232
▁cabin	-11.9234
▁friction	-11.9236
ctu	-11.9237
▁stays	-11.924
▁shaped	-11.9242
iff	-11.9242
▁confrontation	-11.9245
▁behold	-11.9245
▁console	-11.9248
▁miracle	-11.9251
▁lend	-11.9252
▁agreeing	-11.9255
▁deadlines	-11.926
▁scholarly	-11.9261
▁deed	-11.9262
▁pencil	-11.9263
▁mentally	-11.9265
▁iranian	-11.9269
▁toilet	-11.9272
osis	-11.9272
▁disc	-11.9283
▁supplied	-11.9283
▁finite	-11.9283
▁wins	-11.9284
▁testifying	-11.9287
▁texture	-11.9289
▁athletic	-11.9291
▁discriminatory	-11.9291
▁conceptual	-11.9291
▁cruel	-11.9292
tia	-11.9292
▁wealthy	-11.9293
▁papa	-11.9297
▁kentucky	-11.9299
▁villages	-11.9301
ographic	-11.9304
▁definite	-11.9305
▁sap	-11.9309
▁autonomy	-11.9314
▁linguistic	-11.9314
▁paths	-11.9316
▁penn	-11.9316
▁allen	-11.9317
▁recognised	-11.932
▁firearms	-11.9339
▁prohibit	-11.9343
ters	-11.9344
▁hiv	-11.9346
▁autumn	-11.9349
▁detained	-11.935
▁feminine	-11.9357
yo	-11.9359
▁donation	-11.936
▁citing	-11.9362
▁greg	-11.9364
▁contacted	-11.9365
non	-11.9372
centered	-11.9374
▁spar	-11.9375
▁paradigm	-11.9377
▁unquote	-11.9377
▁smash	-11.9377
long	-11.938
▁bridges	-11.9381
▁keywords	-11.9382
▁geographic	-11.9382
▁mysterious	-11.9385
▁corrected	-11.9385
▁opera	-11.9386
▁nasa	-11.9387
▁header	-11.9387
▁magical	-11.9389
▁strings	-11.9389
▁beneficiary	-11.9397
▁suspend	-11.9398
▁filters	-11.9399
▁traveled	-11.94
▁charlie	-11.9401
▁cleared	-11.9403
aga	-11.9408
▁illustrate	-11.9408
▁exercising	-11.9409
▁shops	-11.941
▁conferences	-11.9411
self	-11.9411
▁admissible	-11.9413
▁recital	-11.9413
▁discourse	-11.9413
▁referral	-11.9413
ked	-11.9414
▁consolidated	-11.9415
▁proteins	-11.9415
▁unemployed	-11.9416
▁earliest	-11.9417
term	-11.9417
▁lakes	-11.9417
▁renewal	-11.9419
▁cambridge	-11.942
▁suppression	-11.9421
▁benchmark	-11.9423
▁kilo	-11.9423
▁surveys	-11.9424
▁lang	-11.9426
▁linking	-11.9427
▁diameter	-11.9428
▁excerpts	-11.943
die	-11.9433
▁mock	-11.9433
▁nurses	-11.9434
▁positively	-11.9434
▁souls	-11.9435
▁bodily	-11.944
▁halt	-11.9444
▁mil	-11.945
▁charts	-11.9454
▁delight	-11.9457
▁realities	-11.9459
▁vain	-11.9459
ado	-11.9464
▁naval	-11.9465
▁documentary	-11.9466
▁activists	-11.9468
▁unconscious	-11.9468
▁bou	-11.9474
▁seventeenth	-11.9474
▁mold	-11.9475
▁orchestra	-11.9476
▁viewpoint	-11.9478
▁labs	-11.9479
▁interstate	-11.9485
▁moldova	-11.9488
▁expose	-11.949
pul	-11.9492
▁permissible	-11.9492
▁promising	-11.9492
▁upheld	-11.9492
▁shocked	-11.95
hana	-11.9504
▁obstacle	-11.9504
▁sixteenth	-11.9504
▁kansas	-11.9504
▁enlargement	-11.9504
▁fame	-11.9507
▁laser	-11.9508
▁patriot	-11.9508
▁prioritize	-11.9508
lf	-11.951
cut	-11.9516
uv	-11.9521
▁objectively	-11.9522
▁empower	-11.9526
▁holder	-11.9526
▁indiana	-11.9528
▁census	-11.9528
▁romanian	-11.9528
▁builder	-11.953
ination	-11.9531
▁visavis	-11.9532
▁wales	-11.9533
sch	-11.9535
▁signatures	-11.9535
lay	-11.9542
▁tickets	-11.9544
▁rhythm	-11.9548
▁protocols	-11.9548
▁punished	-11.9548
▁verses	-11.9549
▁glasses	-11.955
▁globalization	-11.9551
▁observing	-11.9552
▁martinez	-11.9552
▁refusal	-11.9556
▁dirt	-11.9559
▁superintendent	-11.956
▁anonymous	-11.956
▁tanks	-11.9562
▁hamilton	-11.9564
▁noon	-11.9566
▁switching	-11.9567
▁feather	-11.9568
▁heck	-11.9571
▁holidays	-11.9576
▁emphasized	-11.9576
bl	-11.9576
view	-11.9578
▁rigorous	-11.9579
▁halfway	-11.958
▁entitlement	-11.958
▁transitional	-11.9581
▁flew	-11.9582
pin	-11.9583
▁integer	-11.9584
ich	-11.9585
▁restraint	-11.9586
making	-11.9586
▁prototype	-11.9592
▁grief	-11.9592
▁terry	-11.9593
▁renewables	-11.9593
▁plum	-11.9595
▁eagle	-11.9596
▁chop	-11.9599
▁desperate	-11.9599
▁curiosity	-11.96
▁affair	-11.9602
▁overhead	-11.961
▁recess	-11.9611
rud	-11.9614
▁wicked	-11.9618
organ	-11.9622
▁inherently	-11.9628
cip	-11.9628
▁prosecutors	-11.9632
num	-11.9632
▁forcing	-11.9633
hn	-11.9634
▁distortion	-11.9639
▁ample	-11.964
▁conventions	-11.9643
▁terribly	-11.9644
▁airline	-11.9645
▁sail	-11.9647
▁explanations	-11.9649
ggle	-11.965
▁fiftytwo	-11.965
▁cooper	-11.9652
▁abundance	-11.9657
▁robinson	-11.9657
▁batch	-11.9657
▁praying	-11.9659
▁arriving	-11.9661
▁abraham	-11.9661
aid	-11.9663
▁verbal	-11.9668
pc	-11.9668
▁portuguese	-11.9669
▁damaging	-11.9673
▁organ	-11.9677
▁adhere	-11.9677
▁lifting	-11.9681
▁ag	-11.9683
▁beer	-11.9685
▁consecutive	-11.9685
▁representations	-11.9688
runner	-11.9706
▁wisconsin	-11.9709
▁mediumsized	-11.9709
▁hut	-11.9712
▁wheat	-11.9714
▁spawn	-11.9718
▁syn	-11.9718
▁exercised	-11.9718
▁rho	-11.9721
oi	-11.9722
▁qualitative	-11.9726
▁nonsense	-11.9726
▁infant	-11.9726
▁prospects	-11.9728
▁slot	-11.9728
▁supervisors	-11.9731
▁proximity	-11.9734
▁leather	-11.9734
▁cease	-11.9735
▁continuity	-11.9738
▁colonial	-11.9738
▁fixing	-11.974
▁rode	-11.9742
▁helen	-11.9742
wil	-11.9742
▁shining	-11.9745
gru	-11.9746
▁needle	-11.9749
▁prevailing	-11.9752
▁info	-11.9752
▁accord	-11.9755
▁relocation	-11.9757
▁montana	-11.9759
▁witnessed	-11.9759
▁locate	-11.9764
▁debated	-11.9765
▁backed	-11.9766
▁circulation	-11.9767
▁clusters	-11.9767
key	-11.9769
▁pulse	-11.977
sca	-11.9771
▁harvard	-11.9775
▁vent	-11.9775
▁ranch	-11.9776
▁genuinely	-11.9779
master	-11.9781
▁literary	-11.9783
▁depart	-11.9786
▁pope	-11.9786
▁optimal	-11.9787
cock	-11.9788
▁fever	-11.9789
▁southwest	-11.9795
▁hollow	-11.9808
▁clearing	-11.9814
tho	-11.9815
▁costly	-11.9815
▁francis	-11.9815
avi	-11.9819
▁networking	-11.982
▁aaron	-11.9822
▁indonesia	-11.9824
▁singapore	-11.9824
▁lied	-11.9826
▁decimal	-11.9828
idi	-11.9832
▁laura	-11.9835
▁rehabilitation	-11.9836
lies	-11.9839
▁belgian	-11.9841
bank	-11.9842
▁obtaining	-11.9844
▁ink	-11.9846
▁wrapped	-11.9846
sided	-11.9848
▁variations	-11.985
hole	-11.9851
▁walter	-11.9853
▁municipalities	-11.9854
ida	-11.9855
▁advocacy	-11.9857
▁packaging	-11.9861
▁heroes	-11.9862
equi	-11.9863
▁subscription	-11.9865
▁jurisdictions	-11.9866
▁folk	-11.9868
▁sala	-11.9869
▁bands	-11.9869
▁submitting	-11.9872
▁thermal	-11.9875
▁eightys	-11.9884
▁thirteenth	-11.9886
aj	-11.9886
▁announcements	-11.989
▁cpu	-11.9896
▁pensions	-11.9899
▁predator	-11.99
▁borne	-11.9901
▁therapist	-11.9903
▁successor	-11.9904
▁phenomena	-11.9904
▁bud	-11.9904
▁pockets	-11.9907
▁activate	-11.9909
▁jason	-11.9912
▁mate	-11.9915
▁afghan	-11.9915
▁invisible	-11.9915
▁advertisement	-11.9921
▁virgin	-11.9923
▁firing	-11.9924
▁calculator	-11.9928
▁shepherd	-11.9928
▁uphold	-11.9928
▁morrow	-11.9928
▁disciples	-11.9929
gon	-11.993
▁immense	-11.9931
▁inspections	-11.9932
▁fortysix	-11.9932
▁ninetyseven	-11.9934
fl	-11.9934
▁appealing	-11.9937
▁muscles	-11.9939
▁quantitative	-11.994
▁tourist	-11.9941
▁sweep	-11.9942
▁judgments	-11.9943
lli	-11.9945
▁strengths	-11.9945
▁mixing	-11.9949
▁adjusted	-11.9951
▁robin	-11.9951
▁geneva	-11.9956
▁monkey	-11.9957
eri	-11.9961
▁intercept	-11.9961
▁grocery	-11.9965
▁seventytwo	-11.9966
▁reconsideration	-11.9967
▁wrongful	-11.9968
▁severely	-11.9968
▁clarified	-11.9974
▁selective	-11.9974
▁crap	-11.9976
▁venezuela	-11.9977
nah	-11.9979
▁messenger	-11.9982
▁graham	-11.9982
ude	-11.9982
▁dispatch	-11.9986
▁preemption	-11.9987
▁bru	-11.9989
▁sym	-11.9989
▁scarcely	-11.999
▁displacement	-11.999
▁magnet	-11.9992
▁shark	-11.9995
▁aiming	-11.9996
▁dock	-12.0002
▁privileged	-12.0009
▁precision	-12.0011
▁tricks	-12.0014
position	-12.0014
▁romantic	-12.0014
▁dwelling	-12.0017
▁hans	-12.0018
▁howard	-12.0018
hin	-12.0019
▁socially	-12.0019
▁completing	-12.002
rif	-12.0021
disproportionate	-12.0024
▁finishing	-12.0027
▁predecessor	-12.0028
▁handy	-12.0031
▁criminals	-12.0031
▁clubs	-12.0033
▁fal	-12.0035
▁dozens	-12.0036
▁vulnerability	-12.0036
▁upward	-12.0037
▁machinery	-12.0037
▁welcoming	-12.0041
▁believer	-12.0046
▁dictate	-12.0053
▁styles	-12.0053
▁caring	-12.0056
▁reconstruction	-12.0058
▁gradient	-12.0062
▁amending	-12.0062
▁sme	-12.0063
▁evidently	-12.0066
phon	-12.0069
▁rot	-12.007
▁vlog	-12.0071
▁suspected	-12.0071
▁shy	-12.0081
▁informant	-12.0083
▁inevitable	-12.0083
▁pragmatic	-12.0083
▁ninetyeight	-12.0084
dl	-12.0084
▁transformed	-12.0085
aud	-12.0089
▁ladder	-12.0092
▁acp	-12.0096
▁catherine	-12.0096
▁seekers	-12.0099
▁gently	-12.0101
zer	-12.0103
▁handful	-12.0103
▁sampling	-12.0104
nell	-12.0111
▁kicked	-12.0113
▁interpreters	-12.0114
lian	-12.0114
ibility	-12.0115
▁cinema	-12.0118
▁artistic	-12.0119
▁dashboard	-12.0122
▁characterize	-12.0123
sync	-12.0124
▁utilities	-12.0125
▁beaten	-12.0127
▁chips	-12.013
pic	-12.0131
lessness	-12.0131
▁servers	-12.0132
▁timber	-12.0133
▁alike	-12.0134
abel	-12.0137
▁broaden	-12.0138
▁vendors	-12.0139
rail	-12.014
▁java	-12.0143
▁yards	-12.0143
verse	-12.0143
dc	-12.0144
▁steering	-12.0146
▁ninetysix	-12.0146
▁proportionality	-12.0148
▁rage	-12.0148
▁flee	-12.015
▁chambers	-12.0152
▁luke	-12.0153
▁teen	-12.0153
▁epic	-12.0153
▁evolving	-12.0155
▁disorders	-12.0155
▁infringe	-12.0158
▁highlevel	-12.0159
▁determinations	-12.0161
▁whistleblower	-12.0163
▁confront	-12.0167
▁airports	-12.0168
▁persist	-12.0169
▁hierarchy	-12.0172
ulated	-12.0173
▁penny	-12.0175
▁reluctant	-12.0176
▁mentions	-12.0178
▁sensitivity	-12.0182
▁assisted	-12.0182
▁blend	-12.0183
▁troubled	-12.0183
▁suppliers	-12.0188
▁ruler	-12.0189
▁ruth	-12.0192
▁evasion	-12.0198
eta	-12.0198
▁complained	-12.0199
▁insisted	-12.0201
▁dissent	-12.0202
▁landed	-12.0203
▁pesticides	-12.0205
kel	-12.0206
▁fisher	-12.0209
▁deter	-12.021
▁nano	-12.021
▁terminology	-12.021
▁genius	-12.0211
▁jointly	-12.0214
▁fragile	-12.0215
▁smartphone	-12.0215
▁moses	-12.0215
ech	-12.0216
▁funnel	-12.0227
▁freight	-12.0228
▁bog	-12.0229
shed	-12.023
▁despair	-12.0232
late	-12.0232
▁gateway	-12.0233
▁ebook	-12.0233
▁yoga	-12.0235
▁donations	-12.0236
▁lynch	-12.0238
activation	-12.0241
▁cape	-12.0242
▁instruct	-12.0242
ote	-12.0242
▁phases	-12.0247
▁knocked	-12.0249
▁medications	-12.0249
▁enrollment	-12.025
▁warned	-12.025
▁interestingly	-12.0253
▁manipulation	-12.0258
▁sponsored	-12.0259
▁ado	-12.0261
▁lisa	-12.0262
▁boots	-12.0264
▁stabilize	-12.0266
▁predicted	-12.0267
genesis	-12.0269
▁indifference	-12.0271
▁volumes	-12.0271
▁nib	-12.0271
▁darker	-12.0271
▁marking	-12.0275
▁tiger	-12.0275
▁shareholders	-12.0277
▁stu	-12.0278
▁labeled	-12.0278
▁enthusiasm	-12.0279
▁hath	-12.0281
▁chairs	-12.0282
front	-12.0283
▁sympathy	-12.0284
▁iteration	-12.0285
▁patron	-12.0285
▁gardens	-12.0286
una	-12.0286
▁stitch	-12.029
▁cargo	-12.0291
▁rifle	-12.0293
ille	-12.0295
▁scout	-12.0298
▁lump	-12.0302
▁athletes	-12.0303
▁cooperating	-12.0306
ux	-12.0306
▁throne	-12.0306
▁gases	-12.0309
▁malicious	-12.0309
▁hebrew	-12.0314
▁illegally	-12.0316
▁adams	-12.0316
▁reads	-12.0318
▁duplicate	-12.0318
▁imperial	-12.0318
▁exponential	-12.0318
▁dependence	-12.0319
away	-12.0322
▁elder	-12.0322
rf	-12.0323
hydr	-12.0323
▁typing	-12.0323
▁differentiate	-12.0325
▁buses	-12.0325
riv	-12.0325
▁brands	-12.0326
▁portrait	-12.0327
▁desires	-12.0328
▁flush	-12.033
▁swallow	-12.0331
▁clauses	-12.0331
▁pirate	-12.0331
hard	-12.0334
til	-12.0337
▁advancing	-12.034
▁grim	-12.034
▁exhibits	-12.0345
▁proportional	-12.0348
▁northeast	-12.0348
▁seasonal	-12.0351
▁interchange	-12.0353
▁trunk	-12.0353
▁acute	-12.0354
▁abide	-12.036
taking	-12.0361
▁recollection	-12.0362
▁forgiveness	-12.0364
▁iceland	-12.0371
▁investigator	-12.0375
▁permanently	-12.0376
▁ideally	-12.0378
▁nitrogen	-12.0379
▁toys	-12.0382
▁metropolitan	-12.0383
▁nelson	-12.0388
▁bruce	-12.0393
▁fitting	-12.0393
▁aisle	-12.0397
▁rider	-12.0399
▁determines	-12.0399
hun	-12.0404
▁defensive	-12.0405
▁solo	-12.0405
gna	-12.0409
parliamentarians	-12.041
▁intervening	-12.0414
▁allocate	-12.0417
▁creators	-12.0417
▁delicious	-12.0418
▁hum	-12.0421
▁labeling	-12.0422
nik	-12.0422
▁dwell	-12.0425
▁beforehand	-12.0427
▁shear	-12.0427
▁illusion	-12.0427
graph	-12.0428
▁redress	-12.0429
▁unfold	-12.0433
▁hoc	-12.0435
▁mounted	-12.0437
▁vendor	-12.0439
cate	-12.0439
▁speculative	-12.044
▁kate	-12.0443
▁fatigue	-12.0449
▁longest	-12.0451
▁meals	-12.0453
bus	-12.0453
▁misrepresentati	-12.0456
▁publisher	-12.0462
▁interrupted	-12.0463
▁radar	-12.0463
▁flights	-12.0464
▁foreseen	-12.0465
▁incumbent	-12.0466
▁implicit	-12.047
▁thankful	-12.0474
▁persistent	-12.0476
▁communicated	-12.0478
▁reasonableness	-12.0478
▁expressions	-12.048
▁improperly	-12.0485
▁formerly	-12.0488
▁varied	-12.0489
▁imperative	-12.0493
▁propaganda	-12.0493
▁reduces	-12.0493
▁sufficiency	-12.0495
▁apples	-12.0495
▁failures	-12.0495
▁apa	-12.0497
▁silk	-12.05
▁tony	-12.0502
▁organizational	-12.0505
▁exponent	-12.0506
▁inequalities	-12.0506
▁smiled	-12.0508
oz	-12.0512
▁prisons	-12.0513
▁vacate	-12.0514
ique	-12.0514
▁disruption	-12.0517
▁cycles	-12.0518
▁tau	-12.0518
▁plates	-12.0522
▁counterfeit	-12.0524
▁masculine	-12.0524
rou	-12.0527
▁shifts	-12.0535
▁theorem	-12.0538
▁volt	-12.0539
▁versa	-12.054
▁muhammad	-12.0541
▁outfit	-12.0542
▁spike	-12.0545
dom	-12.0545
▁gauge	-12.0546
rr	-12.0548
▁escaped	-12.0548
▁bicycle	-12.055
▁ratified	-12.055
▁intimate	-12.0554
▁deer	-12.0554
▁omission	-12.0555
▁manually	-12.0565
▁rebuild	-12.0566
▁entries	-12.0568
▁manifestation	-12.0571
▁mothers	-12.0571
▁expedition	-12.0577
▁households	-12.058
▁genre	-12.0584
▁imprisonment	-12.0586
ured	-12.0586
▁detected	-12.0588
▁aids	-12.0591
code	-12.0591
▁jonathan	-12.0595
▁seasons	-12.0598
▁molecular	-12.0599
▁manufacture	-12.0603
▁douglas	-12.0603
hil	-12.0606
▁accelerate	-12.0607
▁knowingly	-12.0609
▁julie	-12.0609
▁earnest	-12.0609
▁luxury	-12.0612
▁murdered	-12.0616
▁legislators	-12.0617
▁tide	-12.0619
▁endless	-12.0629
▁polite	-12.0633
▁serial	-12.0635
▁correspond	-12.0638
old	-12.0638
▁sleeve	-12.0639
▁combining	-12.0644
▁dividing	-12.0644
▁forthcoming	-12.0644
▁stall	-12.065
▁strat	-12.0652
▁desirable	-12.0653
▁naked	-12.0653
▁delegations	-12.0655
▁hardest	-12.0656
▁minors	-12.066
▁merge	-12.0661
▁dispositive	-12.0662
▁harmony	-12.0662
▁encouragement	-12.0664
qual	-12.0664
▁segments	-12.0664
▁graphics	-12.0667
hol	-12.0668
▁avoidance	-12.0669
▁awkward	-12.067
▁entail	-12.0671
type	-12.0671
▁reminds	-12.0675
▁monte	-12.0678
▁kindly	-12.0685
▁recreational	-12.0687
▁altered	-12.0688
▁frequencies	-12.0688
▁salaries	-12.0689
▁fiftyfour	-12.0692
▁disciplinary	-12.0697
▁balloon	-12.0698
▁rebel	-12.0699
▁liver	-12.0699
▁questionnaire	-12.0702
▁litigated	-12.0705
▁consulted	-12.0705
▁validation	-12.0712
lop	-12.0715
▁sewer	-12.0717
▁circumstantial	-12.072
▁schenectady	-12.072
▁gem	-12.0728
▁gaza	-12.073
▁curtain	-12.0733
bli	-12.0735
▁temporal	-12.0738
▁fingerprint	-12.0738
▁haul	-12.0741
▁varying	-12.0743
elle	-12.0743
▁affection	-12.0744
▁easement	-12.0745
▁searched	-12.0747
▁levi	-12.0748
▁interacting	-12.0749
sses	-12.075
▁comic	-12.075
▁commons	-12.0752
▁widow	-12.0756
▁eaten	-12.0759
▁coordinating	-12.0761
▁hopes	-12.0767
▁veto	-12.0768
▁misess	-12.077
▁recordings	-12.077
▁lender	-12.0774
▁sandwich	-12.0774
▁connectivity	-12.0775
▁scream	-12.0777
▁tenure	-12.0778
▁midnight	-12.0779
▁protections	-12.0779
▁organisms	-12.0781
▁annually	-12.0784
▁obligated	-12.0785
▁alleging	-12.0788
▁alluded	-12.0788
▁cruise	-12.0788
▁implication	-12.0792
▁ridge	-12.0792
▁chuck	-12.0793
▁shortcomings	-12.0797
▁crawl	-12.0797
▁chu	-12.0797
▁nuts	-12.0801
▁diplomacy	-12.0802
▁clan	-12.0802
fire	-12.0803
▁racing	-12.0804
▁charm	-12.0804
cid	-12.0805
▁planted	-12.0805
▁dioxide	-12.0806
▁warnings	-12.0807
▁roger	-12.081
ever	-12.0811
▁spy	-12.0813
▁respects	-12.0814
▁thoughtful	-12.0815
▁cheat	-12.0817
▁cuba	-12.0821
pho	-12.0822
▁crush	-12.0824
omic	-12.0827
▁satan	-12.0829
▁quoting	-12.0834
▁maxim	-12.0835
▁facie	-12.0838
▁attain	-12.0841
▁attributed	-12.0843
▁preserving	-12.0847
▁correspondence	-12.0847
▁conceal	-12.0849
▁woke	-12.0851
▁regression	-12.0851
▁dangers	-12.0852
▁prosecute	-12.0855
▁cone	-12.0858
cum	-12.0861
▁vest	-12.0861
▁ref	-12.0864
▁concession	-12.0866
▁prep	-12.0868
mond	-12.0869
▁sang	-12.0872
▁ignoring	-12.0874
▁taiwan	-12.0874
▁gig	-12.0879
▁conflicting	-12.0879
▁kindness	-12.0882
dri	-12.0883
ush	-12.0885
▁hopeful	-12.0886
▁criticized	-12.0887
▁newton	-12.0888
▁supporters	-12.0891
atic	-12.0892
▁identifies	-12.0893
▁introductory	-12.0893
▁kenya	-12.0895
itude	-12.0897
▁heroin	-12.0898
▁ascertain	-12.0906
▁vectors	-12.0907
▁hedge	-12.0907
▁factually	-12.0909
▁cooling	-12.0909
▁outbreak	-12.091
▁spatial	-12.0911
pack	-12.0914
▁hosts	-12.0916
▁pays	-12.0918
▁angles	-12.0921
▁swiftly	-12.0924
▁ritual	-12.0925
▁carpet	-12.0929
▁pivot	-12.093
▁invoke	-12.0933
▁understandable	-12.0934
▁delegate	-12.0938
▁actress	-12.0938
▁scattered	-12.0938
▁confidentiality	-12.094
tum	-12.0941
▁persuade	-12.0942
▁periodic	-12.0943
▁indepth	-12.0943
nam	-12.0943
▁transmitted	-12.0948
▁cad	-12.0951
▁calculating	-12.0952
▁delaware	-12.0952
▁reed	-12.0957
▁foolish	-12.0958
▁fork	-12.0959
▁rings	-12.0961
▁marshall	-12.0966
▁shocking	-12.0966
▁jen	-12.0972
fest	-12.0973
▁trustees	-12.0974
▁atomic	-12.0974
but	-12.0975
▁kat	-12.0975
▁hormone	-12.0975
▁ashamed	-12.0976
▁dealer	-12.0977
rv	-12.0977
▁cleaner	-12.0981
▁philosopher	-12.0985
▁deleted	-12.0989
▁compulsory	-12.0989
▁cosine	-12.099
▁violates	-12.0991
▁diminish	-12.0993
▁springs	-12.0997
▁catching	-12.0998
▁recipient	-12.0998
▁ecommerce	-12.0999
▁discern	-12.0999
▁curl	-12.1002
eau	-12.1004
▁backing	-12.1013
▁burglary	-12.1014
▁depressed	-12.1022
▁lopez	-12.1026
▁macroeconomic	-12.1026
▁ignorance	-12.1036
ark	-12.1036
▁candid	-12.1042
▁refusing	-12.1045
elli	-12.1047
▁containers	-12.1048
▁analytical	-12.105
▁politician	-12.105
▁ninetytwo	-12.1053
dine	-12.106
▁struggled	-12.106
▁condo	-12.1061
▁victoria	-12.1064
▁fiftythree	-12.1065
▁speeches	-12.1065
▁flux	-12.1066
▁civilians	-12.1067
▁handsome	-12.1069
▁pathways	-12.1077
▁philippines	-12.1077
▁nas	-12.1077
▁concurrent	-12.1082
▁usb	-12.1083
▁voter	-12.1084
▁offshore	-12.1085
▁instructional	-12.1085
▁replicate	-12.1087
▁enhancing	-12.1087
▁warehouse	-12.1092
▁projected	-12.1093
▁austrian	-12.1095
ye	-12.1098
▁demons	-12.1098
entrepreneurship	-12.1098
hom	-12.11
▁prayers	-12.1104
▁consuming	-12.1105
▁lebanon	-12.1106
▁stir	-12.1107
▁psychologist	-12.111
▁sexually	-12.1111
▁trader	-12.1114
▁telescope	-12.1115
▁comm	-12.1119
▁mun	-12.112
▁competences	-12.1122
▁neutrality	-12.1123
▁accessing	-12.1125
▁burdens	-12.1131
▁diagnosed	-12.1133
▁investigative	-12.1134
▁acre	-12.1134
▁debating	-12.1134
▁mindful	-12.1138
▁oxford	-12.1139
▁basement	-12.1139
▁straw	-12.114
▁gaining	-12.1142
ual	-12.1143
▁iii	-12.1143
▁masters	-12.1144
▁cups	-12.1144
▁hatch	-12.1148
▁manufactured	-12.1149
▁whoa	-12.1152
▁buddy	-12.1153
▁sixtyeight	-12.1155
▁fierce	-12.1157
▁billy	-12.1158
▁administer	-12.1161
space	-12.1161
characterization	-12.1162
▁rodriguez	-12.1162
▁techsoup	-12.1162
ico	-12.1162
▁releases	-12.1164
zu	-12.1164
▁brake	-12.1168
▁fishery	-12.1169
▁modifications	-12.1169
▁needing	-12.117
▁inability	-12.1173
▁str	-12.1174
▁reinforced	-12.1175
▁sober	-12.1175
▁hatred	-12.1176
▁dull	-12.1177
▁norms	-12.1179
▁defi	-12.118
▁spa	-12.1181
▁containment	-12.1183
ans	-12.1185
▁entertain	-12.1187
mark	-12.1194
▁epsilon	-12.1195
grade	-12.1196
polymer	-12.1197
▁observer	-12.1198
▁creditor	-12.12
▁toronto	-12.1201
▁comedy	-12.1201
▁prosecuted	-12.1206
▁holders	-12.1206
adi	-12.1207
▁mala	-12.121
▁analogous	-12.1212
▁rosa	-12.1212
▁initiate	-12.1213
▁lasting	-12.1214
beck	-12.1214
▁sham	-12.1214
▁complementary	-12.1215
▁bust	-12.1215
human	-12.1217
pf	-12.1217
▁enters	-12.1219
▁leon	-12.122
▁weighed	-12.122
▁pearl	-12.1221
friendly	-12.1224
▁patrick	-12.1224
▁nuance	-12.1224
▁rook	-12.1225
▁mur	-12.1227
▁colours	-12.1227
▁unjust	-12.123
▁ontario	-12.1233
▁metaphor	-12.1233
▁breakthrough	-12.1233
▁winners	-12.1235
▁healed	-12.1236
▁intrinsic	-12.1238
▁releasing	-12.1238
▁rename	-12.124
▁revise	-12.1242
▁manuscript	-12.1242
▁imf	-12.1244
▁spur	-12.1249
▁commentary	-12.1249
▁tighten	-12.1251
▁condemned	-12.1252
▁niche	-12.1253
▁nap	-12.1256
▁seize	-12.1256
▁lifelong	-12.1256
▁tribute	-12.1257
▁tolerate	-12.1258
▁visualization	-12.1259
foot	-12.1259
▁philadelphia	-12.1261
ites	-12.1262
▁stipulated	-12.1264
▁mineral	-12.1265
lio	-12.1266
▁risky	-12.1267
▁seattle	-12.1267
▁banner	-12.1268
▁awake	-12.1268
▁wax	-12.127
▁packed	-12.127
▁protests	-12.1272
▁panelists	-12.1274
▁creep	-12.1275
▁discrete	-12.1276
▁elevation	-12.1276
▁jeopardy	-12.1276
▁coaching	-12.1285
▁jay	-12.1286
▁fulltime	-12.1288
▁maid	-12.1294
▁minerals	-12.13
▁relatives	-12.1302
▁textbooks	-12.1304
lain	-12.1304
▁russell	-12.1304
▁docket	-12.1305
▁bangladesh	-12.1309
▁ttip	-12.1309
▁drilling	-12.1311
▁savage	-12.1314
▁worthwhile	-12.1314
▁median	-12.1318
▁axe	-12.1323
▁withholding	-12.1324
▁disney	-12.1325
▁formats	-12.1326
▁slower	-12.1327
▁instrumental	-12.1327
▁jewel	-12.1331
▁comparative	-12.1332
post	-12.1333
▁macedonia	-12.1333
ici	-12.1334
▁lemon	-12.1335
ddle	-12.1335
▁jennifer	-12.1338
▁extends	-12.1338
▁ambitions	-12.1339
▁presidents	-12.134
▁chromosome	-12.1343
▁rally	-12.1343
▁inmates	-12.1345
via	-12.1345
▁notation	-12.1346
▁paperwork	-12.1346
▁persuasive	-12.1347
▁peru	-12.1348
▁destroying	-12.1348
▁indications	-12.135
▁administrators	-12.1353
▁pleaded	-12.1357
▁endure	-12.1357
▁flags	-12.136
▁bosnia	-12.1362
▁finder	-12.1366
▁obs	-12.1368
▁visitor	-12.1368
▁advances	-12.1369
▁analyst	-12.1371
▁chrome	-12.1377
▁sixtyseven	-12.1379
▁displaced	-12.1386
vac	-12.1386
▁compassion	-12.1389
▁seventys	-12.1393
▁continental	-12.1396
▁unlimited	-12.14
▁perpetrator	-12.1405
▁appointments	-12.1406
▁deportation	-12.1406
▁hallelujah	-12.141
▁integrating	-12.141
▁rebut	-12.1414
▁reassure	-12.1415
ello	-12.1415
lau	-12.1415
▁descent	-12.142
▁sounded	-12.142
▁envision	-12.1425
▁sixtythree	-12.1425
▁blown	-12.1426
▁digest	-12.143
▁basics	-12.1431
▁genomic	-12.1432
▁rad	-12.1434
▁mercury	-12.1434
▁balls	-12.1436
enberg	-12.1439
▁fruitful	-12.1442
▁ceased	-12.1442
▁dataset	-12.1444
▁brady	-12.1445
▁kubernetes	-12.1449
gie	-12.145
▁tactics	-12.145
▁doc	-12.145
▁dial	-12.1453
▁parentheses	-12.1454
interoperability	-12.1458
▁behavioral	-12.1461
▁constituency	-12.1463
▁reap	-12.1467
scu	-12.1468
▁hollywood	-12.1468
▁spider	-12.1469
▁defended	-12.1469
▁alan	-12.1471
fold	-12.1473
rod	-12.1476
▁suburb	-12.1477
▁whale	-12.148
▁exemptions	-12.1481
▁cartoon	-12.1483
▁disappointment	-12.1483
▁earnings	-12.1484
▁weighing	-12.1484
▁pants	-12.149
▁weaken	-12.149
▁earning	-12.1492
▁spi	-12.1492
▁demonstrating	-12.1492
▁tooth	-12.1493
bone	-12.1495
▁wool	-12.1497
▁embodiment	-12.1497
▁launching	-12.1501
▁monitored	-12.1502
▁crater	-12.1503
▁celebrated	-12.1505
▁slaughter	-12.1507
▁mute	-12.1512
▁garbage	-12.1517
▁geometry	-12.1517
▁dies	-12.1518
loo	-12.1518
▁formulation	-12.152
▁fantasy	-12.1527
▁demon	-12.1528
▁journalism	-12.153
▁mobilize	-12.1531
lish	-12.1532
▁loyal	-12.1533
▁deposits	-12.1534
▁notebook	-12.1539
aging	-12.1539
▁descriptions	-12.1542
▁bulgarian	-12.1545
▁hash	-12.1545
▁earl	-12.1551
▁confined	-12.1555
▁speculate	-12.1558
▁preach	-12.156
▁glue	-12.156
ids	-12.1565
▁miranda	-12.1566
▁div	-12.1568
▁lid	-12.1568
▁eightynine	-12.1569
distinguishable	-12.1569
▁readiness	-12.1569
ttle	-12.157
▁winds	-12.157
▁incurred	-12.1571
▁bulb	-12.1571
▁affidavits	-12.1571
▁parker	-12.1573
▁publishers	-12.1573
▁fiftyseven	-12.1575
▁crow	-12.1576
▁solemn	-12.1576
▁canal	-12.1576
▁revolutionary	-12.1577
eon	-12.1577
▁killer	-12.158
▁prevents	-12.1581
▁inflict	-12.1582
▁veil	-12.1585
▁intuitive	-12.1585
▁regulating	-12.1585
▁nationwide	-12.1586
▁tense	-12.159
▁shaking	-12.1591
▁breeding	-12.1592
hon	-12.1602
▁adversary	-12.1605
▁consultations	-12.1608
clu	-12.1611
▁educators	-12.1612
▁elimination	-12.1615
▁tile	-12.1618
▁mesh	-12.162
▁settlements	-12.1624
▁karen	-12.1626
▁stro	-12.1626
▁regimes	-12.1629
▁cage	-12.163
▁empowerment	-12.1631
whi	-12.1631
▁annotation	-12.1635
▁touches	-12.164
▁caps	-12.1641
▁wellknown	-12.1643
▁successes	-12.1644
▁celebrating	-12.1644
most	-12.1646
▁newer	-12.1647
▁kal	-12.1649
▁shortcut	-12.1651
▁fro	-12.1651
▁queer	-12.1653
▁repeal	-12.1654
▁conception	-12.1654
▁sab	-12.1656
cf	-12.1656
▁lonely	-12.1659
▁wifi	-12.1661
▁sixtysix	-12.1661
▁erisa	-12.1665
▁gis	-12.1667
bie	-12.1667
▁millimeter	-12.1669
▁psi	-12.167
iva	-12.1671
▁pour	-12.1671
▁damp	-12.1672
▁efsa	-12.1674
▁romans	-12.1677
▁kinetic	-12.1679
▁goat	-12.1684
▁thrive	-12.1684
lift	-12.1685
▁credited	-12.1685
▁convict	-12.1687
vent	-12.1688
▁stern	-12.1689
▁accent	-12.1693
▁miserable	-12.1694
▁vegas	-12.1694
▁rushed	-12.1695
▁misuse	-12.1696
▁mist	-12.1696
▁startup	-12.1699
▁tennis	-12.1706
▁nazi	-12.1708
▁ranks	-12.1709
▁nationality	-12.1712
lou	-12.1713
▁gran	-12.1714
temp	-12.1717
▁cafe	-12.1722
▁planes	-12.1723
▁unambiguous	-12.1724
▁automation	-12.1724
▁proxy	-12.1724
▁foresee	-12.1725
erg	-12.1726
▁intra	-12.1728
▁nights	-12.1728
▁premature	-12.1729
▁beloved	-12.1729
▁suits	-12.1729
▁respondents	-12.173
▁iphone	-12.1733
▁utilized	-12.1734
illo	-12.1738
▁frightened	-12.1739
▁goodbye	-12.1739
▁soccer	-12.1739
fulness	-12.1739
▁fairy	-12.174
▁wholesale	-12.174
▁administered	-12.174
▁gaze	-12.1742
▁mob	-12.1743
▁morris	-12.1744
▁vocabulary	-12.1749
▁ethiopia	-12.1754
▁fountain	-12.1754
▁unwilling	-12.1754
▁organs	-12.1755
nel	-12.1759
▁diagnostic	-12.1759
▁membrane	-12.1759
▁franklin	-12.1765
▁weaker	-12.1766
▁triggers	-12.1766
▁overwhelmed	-12.1767
▁drought	-12.1769
▁oceans	-12.1771
▁absorption	-12.1774
▁eightyeight	-12.1775
▁wasted	-12.1776
▁swiss	-12.1779
▁sunset	-12.1779
▁agri	-12.1779
▁projection	-12.178
cio	-12.1781
▁scales	-12.1784
▁pest	-12.1789
kra	-12.1792
▁funeral	-12.1794
▁quran	-12.1794
▁defender	-12.1795
▁emily	-12.1795
▁dreadful	-12.1797
▁gambling	-12.1799
mul	-12.1801
▁lever	-12.1803
▁cottage	-12.1804
▁sculpture	-12.1805
▁witch	-12.181
▁professors	-12.1811
▁diego	-12.1812
abi	-12.1816
▁melt	-12.1824
▁copenhagen	-12.1824
▁patreon	-12.1824
▁knot	-12.1824
▁lil	-12.1824
▁lasted	-12.1827
▁sixtytwo	-12.1828
▁nerve	-12.1829
▁upstairs	-12.1829
▁selfish	-12.1836
minute	-12.1836
▁reside	-12.184
▁inmate	-12.1842
▁brad	-12.1845
▁frontier	-12.1847
▁playlist	-12.1852
ulate	-12.1853
▁facto	-12.1865
▁hesitate	-12.1865
hus	-12.1866
▁mutually	-12.1867
▁precluded	-12.1869
▁enforcing	-12.1874
▁tariffs	-12.1879
▁parade	-12.188
▁meadow	-12.1881
▁mum	-12.1882
▁remembering	-12.1882
▁philosophical	-12.1885
▁gordon	-12.1885
▁uploaded	-12.1887
▁gasoline	-12.189
▁monk	-12.189
logged	-12.1891
▁admits	-12.1891
lb	-12.1892
▁caribbean	-12.1895
▁resemble	-12.1895
▁subdivision	-12.1895
▁incomplete	-12.19
▁undoubtedly	-12.19
▁updating	-12.19
etta	-12.1903
tina	-12.1904
▁certify	-12.1904
▁ict	-12.1908
▁arrange	-12.191
▁rumor	-12.191
▁curb	-12.191
▁accomplishment	-12.1918
▁eightyfour	-12.1919
▁recruitment	-12.1921
wall	-12.1922
▁chile	-12.1923
▁investigators	-12.1925
▁pregnancy	-12.1925
▁slack	-12.1926
▁mario	-12.1929
▁vein	-12.1932
▁haiti	-12.1932
hea	-12.1934
▁connects	-12.1934
▁devastating	-12.194
meter	-12.1942
▁undergraduate	-12.1945
world	-12.1946
▁zip	-12.1952
▁tran	-12.1953
▁advocating	-12.1956
▁barbara	-12.1956
▁expire	-12.1956
▁azure	-12.1956
▁logs	-12.1958
written	-12.1962
▁seventyseven	-12.1963
▁olive	-12.1963
▁fiftyeight	-12.1965
▁slap	-12.1965
▁deficient	-12.1966
▁wikipedia	-12.1966
▁corresponds	-12.1969
▁renovation	-12.1971
▁compensate	-12.1972
▁baron	-12.1974
▁billing	-12.1974
▁decreasing	-12.1976
▁contradictory	-12.1976
▁whip	-12.1978
▁washing	-12.198
hour	-12.1982
ector	-12.1984
▁junction	-12.1986
▁customize	-12.1987
▁utterly	-12.1988
▁unrelated	-12.1995
▁spoil	-12.1996
sea	-12.1997
vie	-12.2
▁barb	-12.2001
▁entrepreneur	-12.2003
▁aliens	-12.2004
ously	-12.2005
▁thickness	-12.2005
ility	-12.2006
▁mcdonald	-12.2007
▁tribunal	-12.2007
▁override	-12.2007
aut	-12.2007
▁diesel	-12.2008
▁pun	-12.2009
▁soup	-12.2012
▁econ	-12.2012
▁quant	-12.2013
▁margins	-12.2014
▁hurdle	-12.2017
▁moscow	-12.2017
fen	-12.202
▁mankind	-12.2022
▁ashton	-12.2024
▁pea	-12.2026
▁spear	-12.2027
▁sequences	-12.2028
▁tourists	-12.2028
▁summon	-12.2028
writer	-12.203
ito	-12.2034
▁nih	-12.2041
▁outlook	-12.2045
▁tenant	-12.2048
▁dislike	-12.2049
▁soap	-12.205
▁reinforcement	-12.2051
▁wipe	-12.2051
▁collision	-12.2053
▁seas	-12.2053
▁discard	-12.2054
▁michelle	-12.2054
▁prescribed	-12.2056
wr	-12.206
▁burns	-12.2061
▁reservations	-12.2061
atu	-12.2061
rup	-12.2067
isa	-12.2069
▁scottish	-12.207
▁migrant	-12.2074
▁beard	-12.2078
▁retrieve	-12.2079
▁copied	-12.2079
▁sticks	-12.2079
▁decentralized	-12.2084
▁operative	-12.2084
▁brains	-12.2084
▁perfection	-12.2087
▁borrower	-12.2092
ough	-12.2093
▁dining	-12.2093
▁lawn	-12.2093
powered	-12.2094
▁discord	-12.2094
▁rachel	-12.2094
▁senators	-12.2097
▁glacier	-12.2099
▁instability	-12.21
▁succession	-12.21
▁consumed	-12.21
lus	-12.2101
▁afforded	-12.2109
▁encompass	-12.211
▁encode	-12.211
▁boo	-12.2113
▁partition	-12.2114
▁decay	-12.2115
urg	-12.2118
▁numerical	-12.2122
▁insects	-12.2125
▁neglected	-12.2126
▁opponents	-12.2127
▁centres	-12.2128
▁sworn	-12.213
▁manipulate	-12.2131
▁git	-12.2133
▁theoretically	-12.2133
▁divisions	-12.2134
▁transmit	-12.2134
inated	-12.2136
spec	-12.2138
▁certificates	-12.2141
▁admin	-12.2142
erson	-12.2143
▁android	-12.2144
▁poorly	-12.2145
▁seventythree	-12.2145
▁compliant	-12.2146
▁tailor	-12.215
▁cohort	-12.2151
▁flies	-12.2153
▁coaches	-12.2156
▁albania	-12.2156
edu	-12.2158
▁bracket	-12.2159
▁restructuring	-12.2162
▁symbolic	-12.2163
▁neighbours	-12.2163
▁odds	-12.2165
▁explored	-12.2166
▁trapped	-12.2168
ook	-12.2169
▁tutorials	-12.2169
▁flourish	-12.2172
▁kidney	-12.2173
▁stiff	-12.2176
▁applause	-12.2177
kle	-12.2179
▁helicopter	-12.2183
▁ideology	-12.2188
▁leaning	-12.2192
▁cancellation	-12.2198
▁seemingly	-12.2198
▁garcia	-12.2198
▁competency	-12.2209
▁neuron	-12.221
▁stretched	-12.2211
▁treatments	-12.2212
▁whichever	-12.2216
▁hashtag	-12.2219
▁sensors	-12.2222
▁urged	-12.2224
▁frustrating	-12.2224
▁broadcasting	-12.2229
▁migrate	-12.2235
▁deeds	-12.2238
▁anthony	-12.224
▁barroso	-12.224
▁prudent	-12.2245
loc	-12.2246
▁indirectly	-12.2249
▁slept	-12.2251
▁chap	-12.2252
▁victor	-12.2259
▁continuance	-12.2261
▁pedestrian	-12.2261
▁pastel	-12.2264
▁wheelchair	-12.2266
▁debts	-12.2267
▁electro	-12.2268
vil	-12.2271
▁sickness	-12.2273
▁explosive	-12.2277
▁nightmare	-12.2277
▁successive	-12.2278
conf	-12.228
▁offline	-12.228
▁frivolous	-12.2282
▁embark	-12.2282
▁wreck	-12.2282
▁liberties	-12.2287
▁narrowly	-12.2287
vel	-12.2291
▁temptation	-12.2298
▁gary	-12.2302
▁scheduling	-12.2303
resistant	-12.2308
▁tariff	-12.2309
▁jaw	-12.231
▁fiftynine	-12.231
▁penal	-12.2312
▁sealed	-12.2313
▁imagined	-12.2313
▁filming	-12.2314
▁regain	-12.2314
▁arabic	-12.2314
▁trainer	-12.2317
▁specimen	-12.2319
▁nickname	-12.233
▁casting	-12.2332
▁diffusion	-12.2335
▁telecom	-12.2337
▁sql	-12.2338
▁strap	-12.2338
▁johnny	-12.2339
▁fragrance	-12.2346
▁benchmarks	-12.2347
▁centralized	-12.235
▁deficiency	-12.2351
ntergovernmental	-12.2351
▁attitudes	-12.2354
▁concessions	-12.2355
▁oklahoma	-12.2356
▁homo	-12.2356
▁parental	-12.236
▁biased	-12.2364
▁coupled	-12.2365
▁resilient	-12.2367
▁warren	-12.2367
meyer	-12.2368
▁struggles	-12.2369
product	-12.2369
▁conditionality	-12.2369
▁backdrop	-12.2371
▁wishing	-12.2372
▁planting	-12.2376
hau	-12.2376
▁harmed	-12.2378
▁gee	-12.2385
▁blowing	-12.2387
▁supplier	-12.239
▁judged	-12.2398
▁naming	-12.24
omb	-12.2401
▁luckily	-12.2404
▁footing	-12.2408
▁destiny	-12.2409
▁exceeded	-12.2409
▁admissions	-12.2411
▁stan	-12.2413
▁flooding	-12.2413
ulating	-12.2414
▁sunlight	-12.2416
▁mari	-12.2416
▁genetics	-12.2418
▁richmond	-12.242
liness	-12.2421
▁climbing	-12.2423
▁artwork	-12.2424
▁trivial	-12.2425
▁systematically	-12.2426
▁titled	-12.2427
▁decreased	-12.2429
▁tweak	-12.2431
▁felon	-12.2431
▁mortality	-12.2432
tate	-12.2433
▁rubric	-12.2433
▁mitigating	-12.2436
▁substitution	-12.2436
▁jerry	-12.2436
▁reckon	-12.2436
▁switched	-12.2439
▁ratings	-12.244
▁wires	-12.2441
▁merri	-12.2441
stead	-12.2441
▁forefront	-12.2441
▁elbow	-12.2447
▁watson	-12.2447
▁accidentally	-12.2448
▁preaching	-12.2448
▁upside	-12.2451
▁ripe	-12.2452
▁rewards	-12.2459
▁seventyeight	-12.2459
▁optical	-12.2463
tp	-12.2463
▁rewrite	-12.2463
▁capitalism	-12.2464
▁garment	-12.2465
▁overarching	-12.2468
emi	-12.2469
▁rogers	-12.247
▁grove	-12.2471
▁valued	-12.2473
▁monopoly	-12.2474
▁temporarily	-12.2474
▁whisper	-12.2474
▁quotation	-12.2474
▁joan	-12.2477
▁nominated	-12.2479
▁mandates	-12.2479
▁adjudication	-12.2479
▁ascend	-12.2481
▁hover	-12.2483
▁upstream	-12.2489
▁mandated	-12.249
▁frost	-12.2491
▁staffing	-12.2492
▁annoying	-12.2495
▁tangent	-12.2495
▁parse	-12.2496
ona	-12.25
▁milestone	-12.2501
▁privileges	-12.2501
▁doom	-12.2502
▁deem	-12.2506
▁abstain	-12.2506
▁austin	-12.2506
▁tags	-12.2507
rel	-12.251
▁sid	-12.251
▁worries	-12.2511
▁keyword	-12.2511
▁seniors	-12.2514
▁qualification	-12.2515
▁wilderness	-12.2517
▁congregation	-12.2522
shore	-12.2523
▁recap	-12.2523
▁misrepresent	-12.2523
▁surgeon	-12.253
▁simplest	-12.2531
▁infected	-12.2531
▁noun	-12.2533
▁costume	-12.2534
▁designers	-12.2536
▁irrespective	-12.2538
▁gm	-12.2538
digit	-12.254
▁synergies	-12.2544
▁remarked	-12.2545
▁contributes	-12.2546
▁daytoday	-12.2549
▁definitive	-12.2554
▁inquiries	-12.2554
▁supper	-12.2554
▁absorbed	-12.2558
▁gabriel	-12.256
▁immigrant	-12.2565
▁yemen	-12.2567
▁similarity	-12.2567
▁nationally	-12.2576
▁favourite	-12.258
word	-12.258
▁thesis	-12.2581
▁enzyme	-12.2582
▁polynomial	-12.2582
▁tensions	-12.2583
▁youngest	-12.2589
kai	-12.2589
stream	-12.2592
bridge	-12.2595
ao	-12.2596
piece	-12.2597
▁eightythree	-12.2604
▁torn	-12.2604
▁framed	-12.2604
▁bypass	-12.2605
▁foreseeable	-12.2605
▁inconsistency	-12.2609
▁reservoir	-12.2609
▁offenders	-12.2609
▁ghana	-12.261
▁fulfilling	-12.261
▁speedy	-12.2611
▁gmo	-12.2613
▁buzz	-12.262
▁tropical	-12.262
ego	-12.2621
▁mitchell	-12.2625
▁auditor	-12.2625
▁specificity	-12.2629
▁enforceable	-12.2631
▁lace	-12.2632
cti	-12.2632
imi	-12.2635
▁palestine	-12.2636
▁refine	-12.264
▁brow	-12.264
▁inevitably	-12.2641
▁disturbance	-12.2642
▁homeowners	-12.2646
▁practitioners	-12.2646
▁careers	-12.2651
ison	-12.2657
oph	-12.2657
▁cannabis	-12.2658
oper	-12.2659
▁distinctive	-12.266
▁clash	-12.2663
oh	-12.2663
▁relaxed	-12.2665
▁driveway	-12.2667
▁ninetyfour	-12.2668
▁pertain	-12.2669
▁construe	-12.267
▁extraction	-12.2672
▁writ	-12.2674
▁commodity	-12.2674
▁resettlement	-12.2674
▁benefited	-12.2676
▁drinks	-12.2678
▁waist	-12.2678
awa	-12.268
▁fastest	-12.2682
▁notify	-12.2685
wl	-12.2685
▁preponderance	-12.2685
▁consisted	-12.269
▁facilitating	-12.2691
▁ideological	-12.2691
▁slovakia	-12.2693
▁norman	-12.2696
▁prey	-12.2697
▁eliminating	-12.2702
▁disconnect	-12.2702
▁stringent	-12.2703
▁warfare	-12.2707
▁prospective	-12.2708
ndi	-12.271
bau	-12.2717
▁resolving	-12.2718
uma	-12.2718
▁dedication	-12.2724
▁shiny	-12.2724
▁spine	-12.2725
▁seventysix	-12.2726
unde	-12.2727
ture	-12.2727
▁advertise	-12.2729
ema	-12.2729
▁digging	-12.273
▁compounds	-12.2733
▁lung	-12.2735
▁contemplate	-12.2736
▁antenna	-12.274
▁specifications	-12.2744
▁organizer	-12.2746
▁craig	-12.2746
▁glow	-12.2757
▁queue	-12.2757
▁downloaded	-12.2757
▁dependency	-12.2757
▁recommending	-12.2759
▁preparatory	-12.2762
▁erase	-12.2764
▁rendering	-12.2764
▁declaratory	-12.2768
▁retroactive	-12.2768
▁environmentally	-12.2769
▁cue	-12.277
▁hated	-12.2775
▁cass	-12.2776
▁unanimously	-12.2778
▁fusion	-12.2779
▁tailored	-12.2779
▁bugs	-12.2781
▁fleeing	-12.2782
▁analyses	-12.2791
ache	-12.2792
contamination	-12.2795
▁lithuania	-12.2797
▁stats	-12.2797
▁suited	-12.2798
▁avail	-12.28
▁reporters	-12.2801
▁downstream	-12.2801
▁samuel	-12.2807
chro	-12.2808
▁liquor	-12.2812
▁optimization	-12.2812
▁replies	-12.2812
pli	-12.2812
▁racist	-12.2813
▁screaming	-12.2814
▁gill	-12.2817
▁houston	-12.2818
▁cherry	-12.2818
▁jefferson	-12.2823
▁harness	-12.2827
▁visually	-12.2828
▁multiannual	-12.2829
▁fellowship	-12.2831
▁roar	-12.2832
▁rotating	-12.2835
ific	-12.2837
▁utah	-12.284
▁restart	-12.284
▁vegetable	-12.2845
▁bachelor	-12.2845
▁turtle	-12.2846
▁orphan	-12.2846
boy	-12.2847
▁stealing	-12.2848
bach	-12.2851
▁rude	-12.2854
▁deficits	-12.2855
▁deficiencies	-12.2857
▁verified	-12.2857
▁commented	-12.2859
▁empirical	-12.2862
lec	-12.2865
place	-12.2867
▁acknowledging	-12.2868
▁aluminum	-12.2868
rak	-12.2868
▁outputs	-12.2869
▁painter	-12.2871
▁tomb	-12.2872
▁dilemma	-12.2873
▁withdrew	-12.2873
▁sixtynine	-12.2877
range	-12.2877
▁contemplated	-12.2877
▁paintings	-12.2878
▁chapel	-12.2881
▁masses	-12.2883
▁neo	-12.2884
▁varieties	-12.2885
▁invoice	-12.2885
▁photography	-12.289
▁heap	-12.2891
trans	-12.2891
plo	-12.2891
▁organise	-12.2893
itis	-12.2895
▁sydney	-12.2896
▁logistics	-12.2896
▁ninetythree	-12.2897
▁commanders	-12.2897
▁activated	-12.2899
▁coordinates	-12.29
▁applaud	-12.2901
▁cylinder	-12.2901
▁aesthetic	-12.2901
▁contributor	-12.2902
▁marker	-12.2903
▁proclaim	-12.2907
▁revenge	-12.2907
▁unanimity	-12.2907
▁lazy	-12.2908
▁evans	-12.291
▁hugely	-12.2912
▁competencies	-12.2913
▁nay	-12.2914
▁alleges	-12.2915
▁intends	-12.2918
▁mep	-12.2918
▁apologies	-12.2918
▁criterion	-12.2918
▁cybersecurity	-12.2918
▁epidemic	-12.2918
▁salmon	-12.292
▁rethink	-12.292
dan	-12.2922
▁freaking	-12.2923
▁advocates	-12.2923
▁conquer	-12.2924
▁nancy	-12.2924
▁librarians	-12.2925
▁races	-12.2927
▁slim	-12.2927
▁phenomenal	-12.2928
▁cared	-12.2928
▁mcg	-12.2928
▁spotlight	-12.293
▁disciplines	-12.2931
▁discharged	-12.2933
▁jurisprudence	-12.2935
▁audits	-12.2935
hp	-12.2939
▁pill	-12.2941
▁clone	-12.2942
▁dated	-12.2943
▁fundraising	-12.2946
▁phillips	-12.2946
▁expenditures	-12.2947
▁ninetyone	-12.2948
▁dread	-12.2951
▁collins	-12.2952
▁harmonized	-12.2952
▁surround	-12.2953
▁workload	-12.2959
lation	-12.296
▁steer	-12.2961
▁emotionally	-12.2963
▁traits	-12.2963
▁reductions	-12.2964
▁kilogram	-12.2969
▁jazz	-12.2969
▁guessing	-12.2974
▁monsieur	-12.2974
▁dominated	-12.2975
▁fertilizer	-12.2977
▁intro	-12.2978
ending	-12.298
▁charlotte	-12.298
▁internship	-12.298
▁asserting	-12.2984
izer	-12.2984
▁tackled	-12.299
▁russians	-12.2991
▁bureaucratic	-12.2991
▁feared	-12.2997
▁simplicity	-12.2997
▁composite	-12.2997
▁assisting	-12.3
ante	-12.3
▁cleaned	-12.3002
▁eightysix	-12.3003
▁eightyseven	-12.3005
▁stresses	-12.3006
▁ordering	-12.3007
▁wright	-12.301
▁males	-12.301
wed	-12.3012
▁cult	-12.3012
▁lawrence	-12.3014
▁washed	-12.3015
▁metals	-12.302
▁greeting	-12.3021
▁classrooms	-12.3022
▁sack	-12.3026
▁poorest	-12.3027
lick	-12.3027
ore	-12.3027
itz	-12.3027
yle	-12.3029
ska	-12.303
▁elevator	-12.3031
▁gorgeous	-12.3032
▁rays	-12.3032
▁levy	-12.3032
▁visas	-12.3032
▁overlook	-12.3034
▁belonged	-12.3035
▁truthful	-12.3036
▁aye	-12.3036
gb	-12.3038
▁divert	-12.3038
▁concealed	-12.3039
lud	-12.3039
▁cement	-12.3039
▁criticize	-12.304
▁copying	-12.3042
▁influential	-12.3042
▁whistle	-12.3042
▁discusses	-12.3043
▁collar	-12.3043
▁regiment	-12.3044
▁randomly	-12.3044
▁stole	-12.3044
▁devote	-12.3045
▁linkedin	-12.3045
▁donate	-12.3045
crypt	-12.3047
▁rejecting	-12.3048
▁feast	-12.3048
▁litigate	-12.305
▁arrows	-12.3051
writing	-12.3052
oni	-12.3055
▁hd	-12.3057
▁turbine	-12.306
▁pronounced	-12.306
▁leisure	-12.3065
arth	-12.3067
▁derivatives	-12.3071
▁murphy	-12.3071
▁vouch	-12.3071
band	-12.3074
▁smuggling	-12.3077
▁strickland	-12.3077
▁robots	-12.3077
▁bending	-12.3082
▁dressing	-12.3082
▁colloquy	-12.3082
▁injection	-12.3085
▁identifier	-12.3088
▁hockey	-12.3088
▁progression	-12.3089
▁ipad	-12.3093
itor	-12.3094
▁campbell	-12.3094
▁admiral	-12.3099
▁sunshine	-12.3099
▁coincide	-12.3099
▁transported	-12.3101
▁predictions	-12.3102
▁hurting	-12.3104
▁imminent	-12.3105
▁screenshot	-12.3106
▁solicit	-12.3106
▁marble	-12.3107
▁methamphetamine	-12.3111
frame	-12.3113
▁attacker	-12.3119
pose	-12.312
▁thailand	-12.3123
▁securing	-12.3123
▁tactical	-12.3123
▁hail	-12.3124
▁visualize	-12.3128
▁spinning	-12.3129
ember	-12.3129
▁overlooked	-12.3133
▁cricket	-12.3134
▁outward	-12.3135
▁inspiring	-12.314
hou	-12.314
▁manchester	-12.3142
▁reproduce	-12.3145
▁larry	-12.3146
chu	-12.3149
▁observers	-12.315
eer	-12.3152
▁taxi	-12.3153
▁quarrel	-12.3156
▁ranger	-12.3161
▁buff	-12.3162
▁clearance	-12.3162
▁magnificent	-12.3163
▁vacated	-12.3165
▁highlighting	-12.3166
▁flex	-12.3167
▁endeavour	-12.3168
▁martial	-12.3168
fried	-12.3169
▁curves	-12.3169
▁desperately	-12.317
▁dakota	-12.3174
▁spelling	-12.3175
▁eightyone	-12.3175
▁purchases	-12.3175
▁undergo	-12.318
▁mutations	-12.318
▁remotely	-12.3181
▁inspect	-12.3182
▁surf	-12.3184
▁breached	-12.3185
iel	-12.3188
▁salad	-12.3189
lateral	-12.3194
▁materiality	-12.3195
▁genomics	-12.32
▁phrases	-12.32
▁moles	-12.32
▁shu	-12.32
▁imbalances	-12.3208
lav	-12.321
▁planets	-12.321
thirty	-12.321
ural	-12.3213
▁multiplication	-12.3214
▁monarch	-12.3215
▁fragmentation	-12.3215
▁endangered	-12.3216
▁marie	-12.3217
▁inject	-12.3224
▁happily	-12.3226
▁boyfriend	-12.3226
lyn	-12.3233
weight	-12.3235
▁willful	-12.3239
lier	-12.324
▁majesty	-12.3243
▁ven	-12.3247
▁nonprofits	-12.3248
▁offence	-12.3249
ister	-12.3249
aya	-12.3251
tern	-12.3252
▁consolidate	-12.3252
▁seventyfour	-12.3253
▁triumph	-12.3255
cour	-12.3257
smith	-12.3261
▁arkansas	-12.3261
▁motivate	-12.3269
▁poems	-12.327
under	-12.327
▁graduation	-12.3272
▁heir	-12.3273
▁antitrust	-12.3278
▁erosion	-12.3278
▁intake	-12.3278
▁presumed	-12.328
▁putin	-12.328
▁potatoes	-12.328
▁booth	-12.3281
▁seventyone	-12.3282
▁ecosystems	-12.3283
proof	-12.3283
▁disturbing	-12.3286
▁lightly	-12.3286
▁puerto	-12.329
▁hazardous	-12.3291
ied	-12.3298
▁diminished	-12.3303
▁riot	-12.3312
▁inhibit	-12.3313
▁freak	-12.3314
worm	-12.3317
▁hotels	-12.3317
▁humor	-12.3322
▁michel	-12.3324
▁approximation	-12.3325
▁graduates	-12.3325
▁sixtyone	-12.3327
▁relay	-12.3328
▁moisture	-12.3331
▁religions	-12.3331
▁overly	-12.3334
▁empowered	-12.3335
▁practiced	-12.3335
▁societal	-12.3337
▁beginner	-12.3337
hap	-12.3341
▁musicians	-12.3342
▁medieval	-12.3342
▁multitude	-12.3342
▁obscure	-12.3342
▁clap	-12.3343
▁travelling	-12.3352
▁swept	-12.3354
jan	-12.3356
action	-12.3358
bri	-12.3358
▁ecr	-12.336
▁pertinent	-12.3366
▁abusive	-12.3366
hoe	-12.3366
▁corona	-12.3371
▁stabilization	-12.3372
▁linda	-12.3373
▁transferring	-12.3375
kill	-12.3375
▁sri	-12.3381
▁exc	-12.3381
▁crowded	-12.3381
▁eightytwo	-12.3381
▁sean	-12.3382
▁transnational	-12.3384
▁endorse	-12.3385
▁privately	-12.3386
▁countless	-12.3389
▁wetland	-12.339
▁factories	-12.3391
▁mason	-12.3393
▁quad	-12.3395
▁poke	-12.3396
▁courageous	-12.3398
▁chancellor	-12.3401
▁geography	-12.3401
▁judging	-12.3401
mouth	-12.3403
▁ministerial	-12.3405
▁semantic	-12.3407
▁sho	-12.3408
▁crude	-12.3411
▁canon	-12.3413
▁maneuver	-12.3419
▁underestimate	-12.3419
roc	-12.3419
service	-12.3419
kir	-12.3424
gir	-12.3426
▁checklist	-12.3428
▁mustn	-12.3428
▁advancement	-12.3429
▁templates	-12.3429
▁constituted	-12.3436
▁whispered	-12.3437
rog	-12.3437
▁reveals	-12.3441
▁kidding	-12.3444
▁pertaining	-12.3448
▁subsidiz	-12.3448
▁watt	-12.345
vig	-12.3453
▁standardized	-12.3454
zan	-12.3454
▁bandwidth	-12.3454
▁misery	-12.3455
▁miracles	-12.3456
▁professions	-12.3456
▁traded	-12.3458
▁overtime	-12.3463
▁invent	-12.3469
▁detrimental	-12.347
▁squarely	-12.3471
▁females	-12.3474
oxy	-12.3474
▁predominantly	-12.3475
▁priests	-12.3475
▁guinea	-12.3478
▁mistress	-12.3478
▁promptly	-12.3478
▁estonia	-12.348
▁nutrients	-12.348
▁andrea	-12.3482
▁grandchildren	-12.3484
▁goodwill	-12.3484
▁inheritance	-12.3484
▁holmes	-12.3484
wer	-12.3485
▁von	-12.3487
▁undermining	-12.349
▁imbalance	-12.3491
▁consist	-12.3495
twelve	-12.3496
▁misdemeanor	-12.3496
▁repairs	-12.3497
▁specialists	-12.3498
▁idle	-12.3503
▁coronavirus	-12.3508
▁precondition	-12.3512
▁permitting	-12.3512
▁identities	-12.3514
▁mills	-12.3514
▁sandy	-12.3516
▁unstable	-12.352
▁admire	-12.3523
▁confer	-12.3525
▁casino	-12.3526
▁nominal	-12.3527
communi	-12.3527
dell	-12.3528
▁popularity	-12.3529
style	-12.3531
▁scarce	-12.3531
▁disinformation	-12.3532
▁compression	-12.3534
▁wasting	-12.3537
▁spiral	-12.3538
▁displays	-12.354
▁directing	-12.354
▁sneak	-12.3543
▁embassy	-12.3544
▁lyrics	-12.3544
▁neural	-12.3544
▁kil	-12.3548
▁glorious	-12.355
▁lined	-12.3554
▁anticipation	-12.3556
▁corpus	-12.3556
▁tutor	-12.3556
▁vested	-12.3558
▁doubled	-12.3559
▁diploma	-12.3559
▁talents	-12.3564
▁magazines	-12.3565
▁apt	-12.3566
▁disturbed	-12.3569
▁bottles	-12.3569
▁colony	-12.357
rand	-12.357
▁dye	-12.357
▁carve	-12.3571
▁smoothly	-12.3572
▁khan	-12.3573
▁solomon	-12.3574
▁panama	-12.3575
▁proposes	-12.3576
▁backward	-12.3579
zed	-12.3584
▁urgently	-12.3584
▁scored	-12.3584
▁pixel	-12.3588
▁impaired	-12.3589
▁resting	-12.3594
▁swell	-12.3595
▁transistor	-12.3597
▁valuation	-12.3598
▁accompany	-12.3599
▁slovenia	-12.3603
▁sums	-12.3605
▁deduction	-12.3606
jun	-12.3607
▁preventive	-12.3609
▁motorcycle	-12.361
lee	-12.3614
tf	-12.3615
▁spit	-12.3617
▁computation	-12.3618
ridge	-12.3619
▁feminist	-12.3622
▁somalia	-12.3626
▁impunity	-12.3628
▁advisors	-12.363
▁anyhow	-12.3631
arch	-12.3635
▁suite	-12.364
▁livestock	-12.3641
carb	-12.3645
▁persuaded	-12.3647
franc	-12.3648
▁rim	-12.3652
vor	-12.3653
▁blew	-12.3653
▁intending	-12.3655
▁julia	-12.3655
▁breaches	-12.3656
▁livelihood	-12.3658
▁leo	-12.3661
▁prerequisite	-12.3664
▁blunt	-12.3664
▁surprisingly	-12.3664
▁headache	-12.3665
▁christopher	-12.367
▁excluding	-12.367
▁differentiation	-12.367
▁shallow	-12.3672
nz	-12.3672
▁tub	-12.3672
block	-12.3673
▁projections	-12.3673
▁illustrated	-12.3674
▁mortal	-12.3677
▁enact	-12.3677
▁provisional	-12.3679
▁coil	-12.3681
▁unc	-12.3681
▁disparity	-12.3682
▁unsuccessful	-12.3682
▁fema	-12.3684
▁disclaimer	-12.3686
▁cameron	-12.3687
▁pilots	-12.3687
▁borrowing	-12.3687
▁spontaneous	-12.3688
▁loyalty	-12.3689
▁incoming	-12.369
mol	-12.3694
▁splendid	-12.3694
▁hurried	-12.3694
lip	-12.3694
▁edited	-12.3698
▁refuge	-12.3699
▁unilateral	-12.3701
▁intervals	-12.3702
▁webinars	-12.3703
▁ratify	-12.3703
jin	-12.3705
▁respectful	-12.3705
▁counterparts	-12.3706
▁proportionate	-12.3709
game	-12.3711
▁suffice	-12.3712
▁instructors	-12.3713
▁surge	-12.3715
▁wiki	-12.3715
▁bride	-12.3716
fac	-12.3717
▁intuition	-12.3718
▁purchaser	-12.3719
▁shaft	-12.3719
▁sul	-12.3723
▁mutation	-12.3724
▁ranging	-12.3727
▁naive	-12.3728
▁vapor	-12.3731
▁heated	-12.3731
inu	-12.3731
▁endorsement	-12.3732
sympathetic	-12.3737
▁fitted	-12.3738
mc	-12.374
eman	-12.3741
▁paradise	-12.3743
▁imperfect	-12.3749
▁kinda	-12.3749
▁prejudiced	-12.3751
▁credentials	-12.3753
▁thorn	-12.3755
▁tuning	-12.3755
▁homepage	-12.3757
▁talented	-12.3757
▁dur	-12.3758
▁staring	-12.3759
▁oven	-12.3762
▁knit	-12.3762
▁fib	-12.3766
▁deprivation	-12.3767
▁ribbon	-12.3767
▁supermarket	-12.3768
▁greening	-12.3769
methyl	-12.377
▁distraction	-12.3771
▁capitalist	-12.3774
▁dividend	-12.3774
▁marsh	-12.3774
▁slipped	-12.3774
▁shooter	-12.3775
▁reproductive	-12.3779
▁storing	-12.378
▁confuse	-12.3783
▁pub	-12.3784
▁gracious	-12.3785
rg	-12.3787
▁retailers	-12.3788
▁bp	-12.3789
▁involuntary	-12.3792
▁infantry	-12.3793
▁shin	-12.3799
▁beans	-12.38
▁scare	-12.3802
▁overturn	-12.3806
▁pierce	-12.3809
▁surviving	-12.381
▁ooh	-12.3813
▁fearful	-12.3814
▁inquire	-12.3816
▁accountant	-12.3816
▁idiot	-12.3818
▁persecuted	-12.3819
▁conceived	-12.382
break	-12.3823
▁commanded	-12.3833
sburg	-12.3834
▁calcium	-12.3835
▁threea	-12.3835
▁sorted	-12.3837
▁survivors	-12.3837
▁stark	-12.3839
▁revocation	-12.3841
▁tilt	-12.3842
shot	-12.3842
new	-12.3846
▁probe	-12.3848
agon	-12.3849
rigg	-12.3849
▁ignorant	-12.3853
▁unaware	-12.3853
▁gloves	-12.3853
▁dragged	-12.3854
▁cole	-12.3854
▁distracted	-12.3857
▁accompanying	-12.3858
cel	-12.3861
▁sailors	-12.3862
▁disparities	-12.3865
▁cardinal	-12.3866
▁purported	-12.3866
base	-12.3868
▁disposed	-12.3878
▁wrist	-12.3879
▁purse	-12.3881
uro	-12.3882
▁terrific	-12.3884
▁pillow	-12.3884
▁resurrection	-12.3884
▁skirt	-12.3884
▁literal	-12.3885
▁antibiotics	-12.3889
▁exploited	-12.389
▁altar	-12.3894
aria	-12.3894
▁plural	-12.3895
specific	-12.3895
▁genus	-12.3898
▁satellites	-12.3899
ute	-12.39
▁volatility	-12.3902
▁landmark	-12.3904
▁frog	-12.3904
▁transcription	-12.3905
▁rooted	-12.3908
▁undermined	-12.3908
speed	-12.3911
▁grounded	-12.3913
▁troubling	-12.3915
lov	-12.3917
▁dire	-12.3919
▁focal	-12.3922
▁siege	-12.3923
▁cannon	-12.3925
▁acquaintance	-12.3927
▁rocky	-12.3929
hara	-12.393
driven	-12.3931
rine	-12.3931
▁bern	-12.3932
▁landowner	-12.3934
▁abundant	-12.3934
▁freezing	-12.3935
▁rea	-12.3936
medi	-12.3937
▁catastrophe	-12.394
▁declining	-12.394
▁maturity	-12.394
▁converge	-12.394
▁vaccines	-12.3942
▁predictable	-12.3944
generation	-12.3945
▁thirst	-12.3946
bron	-12.3949
▁blessings	-12.3952
▁primitive	-12.3952
▁forbidden	-12.3953
▁elders	-12.3961
▁sunny	-12.3962
▁nope	-12.3963
▁syntax	-12.3965
▁occupy	-12.3966
▁fcc	-12.3967
▁peel	-12.3968
▁injunctive	-12.3971
▁heights	-12.3972
▁helmet	-12.3973
▁glen	-12.3974
▁appraisal	-12.3977
▁wives	-12.3978
▁junk	-12.3979
▁recalled	-12.3984
▁lacked	-12.3985
▁lively	-12.3987
▁feasibility	-12.399
▁resumed	-12.399
▁proximate	-12.3996
▁stewart	-12.3996
▁jimmy	-12.3996
▁poles	-12.3999
▁candy	-12.4001
eck	-12.4002
▁biomass	-12.4008
▁denote	-12.401
▁fry	-12.401
lux	-12.4013
▁crane	-12.4014
▁shrink	-12.4016
pad	-12.4019
plex	-12.4021
▁implant	-12.4021
▁backyard	-12.4021
▁scptwenty	-12.4021
paid	-12.4023
▁fasting	-12.4031
▁repent	-12.4034
▁postpone	-12.4037
▁analyse	-12.4039
▁complying	-12.404
▁snapshot	-12.404
▁socialists	-12.4041
▁fighters	-12.4042
▁slate	-12.4043
▁bronze	-12.4047
ambi	-12.4051
▁siblings	-12.4051
▁liabilities	-12.4052
▁blackboard	-12.4052
▁redirect	-12.4057
▁faa	-12.4059
▁baptism	-12.4065
▁reflections	-12.4066
▁admittedly	-12.407
▁approving	-12.4071
▁roaming	-12.4071
▁psalm	-12.4071
▁individualized	-12.4073
osa	-12.4073
lina	-12.4076
▁wounds	-12.4077
▁illicit	-12.4077
▁indoor	-12.4078
▁mau	-12.4078
▁detriment	-12.4079
▁elicit	-12.4084
▁showcase	-12.4087
▁gloss	-12.4093
ried	-12.4093
▁noticing	-12.4098
hem	-12.4102
▁spice	-12.4103
▁walmart	-12.4103
▁divergence	-12.4103
▁turk	-12.4103
▁sodium	-12.4103
▁inquired	-12.4105
▁carol	-12.4107
▁interrogation	-12.4109
▁defective	-12.411
▁rev	-12.4115
dro	-12.4115
▁overlapping	-12.4116
▁viewer	-12.4117
▁obstruction	-12.4117
▁login	-12.4121
▁breakout	-12.4122
rink	-12.4125
▁wordpress	-12.4127
▁inaccurate	-12.4128
▁augment	-12.4128
▁wavelength	-12.4128
▁gps	-12.413
trop	-12.4131
osh	-12.4134
kov	-12.4136
▁nearer	-12.4137
▁psr	-12.4139
ulator	-12.4139
▁autistic	-12.4147
▁lone	-12.4147
▁blueprint	-12.4147
▁skull	-12.4153
▁multiplying	-12.4155
▁statistic	-12.4159
▁cater	-12.4159
▁ministries	-12.416
▁towers	-12.4164
▁motors	-12.4166
▁dried	-12.417
roid	-12.4172
▁repetition	-12.4172
▁plague	-12.4172
nin	-12.4175
▁voyage	-12.4179
▁landfill	-12.4179
▁architectural	-12.4179
▁shaping	-12.4181
ogen	-12.4183
▁kara	-12.4186
▁logging	-12.4187
▁endorsed	-12.4188
▁litigant	-12.4192
▁gua	-12.4192
mah	-12.4195
▁enthusiastic	-12.4195
▁ancestors	-12.4196
▁mentality	-12.4198
▁tortured	-12.4201
▁seventynine	-12.4202
▁egregious	-12.4204
▁gonzalez	-12.4204
▁neighbouring	-12.4207
▁deliberations	-12.4207
▁multinational	-12.4207
▁bubbles	-12.421
▁cathedral	-12.4217
▁nicholas	-12.4217
▁finnish	-12.4217
▁trails	-12.4218
astic	-12.4218
▁editorial	-12.4218
▁porter	-12.4219
▁grind	-12.4219
▁regulator	-12.4221
▁forestry	-12.4222
▁grouping	-12.4226
▁tramp	-12.4229
▁bolster	-12.423
iden	-12.4231
▁debut	-12.4232
▁textile	-12.4236
▁orleans	-12.4243
▁boast	-12.4243
▁indicative	-12.4249
▁oppression	-12.425
market	-12.4251
▁sally	-12.4252
▁forgetting	-12.4252
▁precarious	-12.4255
▁underlined	-12.4256
▁recipients	-12.4257
▁archer	-12.4261
▁appetite	-12.4262
▁norwegian	-12.4262
▁synthesis	-12.4262
▁champions	-12.4265
▁berkeley	-12.4268
▁occupational	-12.4269
▁explorer	-12.4271
▁matched	-12.4272
minating	-12.4273
▁fetch	-12.4273
constitutionally	-12.4276
▁drone	-12.4277
▁travelers	-12.4277
▁sanders	-12.4277
▁brew	-12.4278
▁turnover	-12.4281
▁destructive	-12.4281
▁glimpse	-12.4281
▁prompted	-12.4282
▁constraint	-12.4284
pop	-12.4286
▁migratory	-12.4288
▁subtitle	-12.4288
alia	-12.4291
▁azerbaijan	-12.4294
▁subsidy	-12.4294
▁powell	-12.4295
▁headings	-12.4297
▁grading	-12.4304
▁assembled	-12.4305
▁mansion	-12.431
inter	-12.4311
▁reef	-12.4312
▁lucy	-12.4313
▁saddle	-12.4314
▁legendary	-12.4314
▁laughter	-12.4315
▁sip	-12.432
ement	-12.4323
▁lowering	-12.4325
▁peninsula	-12.4326
▁forensic	-12.4328
▁tenants	-12.4333
▁disadvantaged	-12.4334
▁donated	-12.4335
▁romance	-12.4335
▁chew	-12.4336
click	-12.4339
▁accustomed	-12.4339
▁bloody	-12.4341
▁contingency	-12.4346
▁peasant	-12.4346
▁scaling	-12.4346
pg	-12.4349
▁rectangle	-12.4352
▁sarasota	-12.4352
▁poured	-12.4354
▁afterward	-12.4362
▁photographer	-12.4366
otic	-12.4366
▁butler	-12.4369
▁vaccination	-12.4372
carbon	-12.4374
▁cows	-12.4375
▁gum	-12.4382
▁dishes	-12.4383
▁hinder	-12.4384
▁armenia	-12.4384
▁technician	-12.4385
▁vienna	-12.4385
▁partisan	-12.4385
▁dug	-12.4389
▁burnt	-12.4391
▁squad	-12.4391
▁slogan	-12.4391
▁computational	-12.4394
dil	-12.4395
▁dental	-12.4398
elia	-12.4402
▁ingredient	-12.4404
▁montenegro	-12.4404
▁elevated	-12.4407
gul	-12.4408
olo	-12.441
▁righteousness	-12.4412
▁modernization	-12.4417
▁issuance	-12.4417
how	-12.4423
▁downside	-12.4423
▁frederick	-12.4424
▁winding	-12.4426
ben	-12.4427
▁bored	-12.4429
▁extremist	-12.443
▁harbour	-12.443
▁ralph	-12.443
wh	-12.4434
month	-12.4438
▁rhode	-12.4438
▁turner	-12.4439
uf	-12.4441
▁descriptive	-12.4443
▁detroit	-12.4443
▁motives	-12.4443
▁aquaculture	-12.445
▁contingent	-12.445
▁authentication	-12.4452
▁largescale	-12.4453
▁comprise	-12.4455
tron	-12.4456
▁newsletter	-12.4456
▁subsidiary	-12.4456
▁cooler	-12.4459
cell	-12.4459
order	-12.4466
▁negatively	-12.4468
bur	-12.4469
▁reaffirm	-12.447
elecommunication	-12.447
▁elastic	-12.447
▁biofuels	-12.4476
leg	-12.4476
▁approximate	-12.4477
gni	-12.4479
▁uncommon	-12.4483
▁oliver	-12.4483
▁blake	-12.4485
▁pronoun	-12.4485
▁flawed	-12.4486
▁receptor	-12.4489
anna	-12.4491
▁thor	-12.4494
▁crosses	-12.4494
yon	-12.4498
▁porch	-12.4499
▁fabulous	-12.4502
▁registry	-12.4502
▁synonym	-12.4502
▁forbid	-12.4503
▁diagonal	-12.4509
▁bidding	-12.451
factor	-12.4511
▁derogation	-12.4516
▁taliban	-12.4516
pie	-12.4516
▁wagon	-12.4516
▁cruz	-12.4517
▁toolbox	-12.4518
▁pollute	-12.4518
usa	-12.452
▁potter	-12.4521
▁admitting	-12.4525
▁upwards	-12.4527
▁aged	-12.4527
▁lest	-12.4528
▁phenotype	-12.4529
▁similarities	-12.4531
▁apostles	-12.4535
▁pistol	-12.4535
▁heightened	-12.4536
▁perish	-12.4537
▁warrior	-12.4538
▁grape	-12.4538
▁detector	-12.4539
▁conspirator	-12.4542
▁genocide	-12.4542
▁pawn	-12.4544
▁linkage	-12.4545
▁subscribed	-12.4546
▁disgrace	-12.4548
▁realization	-12.4548
▁cancelled	-12.455
▁framing	-12.4555
cular	-12.456
▁adventures	-12.4561
▁sacrifices	-12.4561
▁comrade	-12.4562
▁florence	-12.4562
▁cv	-12.4568
rock	-12.4568
▁validate	-12.4569
▁algebra	-12.4574
▁pyramid	-12.4575
▁jealous	-12.4577
ingham	-12.4579
gio	-12.4579
▁inherited	-12.4583
▁secrecy	-12.4588
▁oops	-12.4588
▁corridors	-12.459
▁symptom	-12.4592
▁designate	-12.4593
▁jose	-12.4594
▁vigilant	-12.4595
▁sierra	-12.4595
▁coral	-12.4595
▁exile	-12.4598
▁sectoral	-12.46
▁vegetation	-12.4602
ulu	-12.4605
▁arrives	-12.4606
▁contracted	-12.4607
nda	-12.4608
▁carpenter	-12.4608
▁residency	-12.4608
▁gradual	-12.4609
▁preacher	-12.461
▁cigarettes	-12.4612
eller	-12.4614
eleven	-12.4614
▁browse	-12.4617
▁excerpt	-12.4619
text	-12.462
▁maple	-12.4621
▁warranted	-12.4624
imo	-12.4625
round	-12.4626
qa	-12.4638
▁exams	-12.464
▁cfp	-12.4642
▁prayed	-12.4644
linger	-12.4646
▁jungle	-12.4648
▁interpreter	-12.4652
▁estimation	-12.4655
▁daddy	-12.4656
▁sponsors	-12.4656
fifty	-12.4657
▁milli	-12.4659
▁severity	-12.4662
▁warranty	-12.4663
bee	-12.4663
▁deprive	-12.4667
▁undue	-12.4668
▁goddess	-12.4668
▁postponed	-12.467
lig	-12.4673
▁planner	-12.4673
▁forehead	-12.4675
▁esteem	-12.4682
process	-12.4683
uter	-12.4685
▁relieve	-12.4687
▁helm	-12.4689
▁merry	-12.4689
▁exchanged	-12.469
phone	-12.4691
▁maiden	-12.4693
▁kam	-12.4694
ago	-12.4698
kon	-12.47
▁socioeconomic	-12.4702
▁unpleasant	-12.4702
▁miami	-12.4702
▁warriors	-12.4706
▁canyon	-12.4706
bird	-12.4708
▁wyoming	-12.4708
▁stag	-12.4711
▁kirk	-12.4713
▁routinely	-12.4714
▁proprietary	-12.4715
▁comics	-12.4717
▁procure	-12.4723
▁revive	-12.4723
▁patrons	-12.4724
▁honesty	-12.4726
▁prohibits	-12.4727
▁compartment	-12.4728
▁galileo	-12.4728
▁autism	-12.4729
▁playground	-12.473
▁intact	-12.4731
▁redo	-12.4731
stock	-12.4732
▁vacant	-12.4735
▁shuttle	-12.4736
▁counterpart	-12.4736
horn	-12.4736
aro	-12.4738
▁phoenix	-12.4742
▁equate	-12.4742
▁bona	-12.4747
▁discourage	-12.4747
▁impartial	-12.4748
▁aggression	-12.4749
▁scam	-12.4749
pala	-12.4749
▁zoo	-12.4751
▁royalty	-12.4752
▁stigma	-12.4753
▁apparatus	-12.4755
▁amazed	-12.4755
imag	-12.476
regulation	-12.4762
▁yell	-12.4762
▁adobe	-12.4763
▁crisp	-12.4765
▁marvel	-12.4766
▁cheerful	-12.4766
▁recovering	-12.4767
▁armenian	-12.4769
▁thereof	-12.4774
vc	-12.4775
▁devotion	-12.4776
▁ornament	-12.4776
▁attendant	-12.4777
▁executing	-12.4782
▁unbelievable	-12.4782
▁moss	-12.4784
config	-12.479
▁kicking	-12.479
▁marshal	-12.4793
▁electronically	-12.4793
▁snack	-12.4796
▁murray	-12.4796
▁companions	-12.4801
▁distract	-12.4802
▁extrinsic	-12.4803
▁inconsistencies	-12.4803
▁concord	-12.4803
▁wandering	-12.4806
▁schu	-12.4809
▁healthier	-12.4811
▁inserted	-12.4811
▁paused	-12.4813
▁vii	-12.4813
▁learner	-12.4815
▁josh	-12.4817
▁stevens	-12.4819
▁petty	-12.4819
▁polls	-12.4819
rl	-12.482
▁reacting	-12.4821
▁generalized	-12.4822
▁lockdown	-12.4824
▁digits	-12.4826
▁catches	-12.4828
▁flour	-12.483
▁exacerbat	-12.483
▁seldom	-12.483
▁mamma	-12.4833
▁peril	-12.4836
▁easter	-12.4836
▁resonate	-12.4837
▁connector	-12.484
bag	-12.4841
▁ellen	-12.4843
▁confinement	-12.4844
▁threads	-12.4846
▁drones	-12.4846
iver	-12.4847
▁refrain	-12.485
phen	-12.485
▁mach	-12.4855
▁sediment	-12.4857
▁affirmatively	-12.4858
▁ounce	-12.4858
▁sincerely	-12.4858
craft	-12.4858
ifiable	-12.486
▁bankrupt	-12.4864
▁nasty	-12.4865
▁procedurally	-12.4865
▁fog	-12.4872
▁ferc	-12.4873
▁composer	-12.4873
▁listeners	-12.4875
▁overflow	-12.4875
▁dragging	-12.4878
▁beaches	-12.4879
▁roadway	-12.4879
▁hallway	-12.4881
▁historians	-12.4882
▁belly	-12.4882
▁questionable	-12.4888
▁occasional	-12.489
▁drawer	-12.4891
▁bernard	-12.4892
bab	-12.4893
hop	-12.4893
▁congo	-12.4895
▁incorrectly	-12.4899
jur	-12.4901
location	-12.4902
▁potato	-12.4903
▁preceding	-12.4905
▁shouted	-12.4905
▁titan	-12.4906
▁strangers	-12.4907
▁obviousness	-12.4911
▁pep	-12.4911
▁coworker	-12.4912
▁venice	-12.4912
▁daylight	-12.4912
▁mice	-12.4914
▁dealers	-12.4917
▁liking	-12.4919
▁concur	-12.4922
▁fuse	-12.4922
rica	-12.4923
▁transposition	-12.4926
▁caption	-12.4927
▁argentina	-12.4932
▁kindergarten	-12.4932
▁conditioning	-12.4934
▁authorizing	-12.4935
vp	-12.4938
ppe	-12.4938
▁legislate	-12.4939
▁secular	-12.494
▁overlay	-12.494
▁aiding	-12.4942
▁smarter	-12.4943
▁defects	-12.4943
rit	-12.4945
▁carved	-12.4945
▁resisting	-12.4945
▁posit	-12.4946
▁arbitrate	-12.4946
▁consortium	-12.4946
▁vibrant	-12.4946
▁wallace	-12.4948
▁conveyed	-12.4948
▁dice	-12.4949
▁athlete	-12.495
▁trevor	-12.4953
▁nerd	-12.4955
gov	-12.4957
▁unite	-12.4958
▁misunderstood	-12.496
▁nephew	-12.496
chester	-12.4962
▁vibe	-12.4963
▁supporter	-12.4965
▁ambulance	-12.4967
▁enrolled	-12.4969
▁accelerated	-12.4969
▁commodities	-12.4974
▁energetic	-12.4974
▁indispensable	-12.4974
▁transatlantic	-12.4974
▁tang	-12.4978
▁countenance	-12.4981
oda	-12.4986
▁pierre	-12.4989
▁flock	-12.4991
raf	-12.4991
▁alley	-12.4997
▁messed	-12.5
▁deception	-12.5001
▁rainbow	-12.5001
▁caesar	-12.5001
▁ngo	-12.5003
▁affiliated	-12.5003
▁awaiting	-12.5005
▁distinguishing	-12.5008
▁encryption	-12.5008
berries	-12.5012
▁imprisoned	-12.5015
▁laundry	-12.5015
▁demonstrations	-12.5017
▁resigned	-12.5017
▁pell	-12.5018
itter	-12.5021
rite	-12.5021
lene	-12.5024
▁wha	-12.5025
▁stakeholder	-12.5028
▁disparate	-12.5029
ador	-12.5031
▁lobbying	-12.5034
▁idaho	-12.5036
▁suppressed	-12.5038
▁dismissing	-12.504
▁summation	-12.5043
▁ammunition	-12.505
▁carrot	-12.505
▁hudson	-12.505
▁curved	-12.5052
▁contributors	-12.5056
hab	-12.5061
pid	-12.5068
▁libyan	-12.5069
▁docs	-12.507
▁pronounce	-12.5072
bbing	-12.5073
▁charming	-12.5073
▁translator	-12.5078
▁retaining	-12.5078
▁diana	-12.508
▁fulfil	-12.5081
cott	-12.5082
▁satisfying	-12.5082
▁synthetic	-12.5085
▁isolate	-12.5085
case	-12.5088
▁resides	-12.509
▁dispose	-12.5091
▁deferred	-12.5092
ometer	-12.5099
▁baptized	-12.5101
▁mole	-12.5105
lv	-12.5105
▁defraud	-12.5106
angled	-12.511
▁simulate	-12.5112
▁maha	-12.5112
▁exterior	-12.5112
hai	-12.5115
stick	-12.5117
▁informing	-12.5117
▁debris	-12.512
▁prosperous	-12.5121
group	-12.5123
▁moodle	-12.5124
▁sway	-12.5124
igan	-12.5125
▁depict	-12.5126
▁slots	-12.5126
▁cleveland	-12.5126
▁homeowner	-12.5127
▁dominate	-12.5133
▁timothy	-12.5133
▁darling	-12.5134
▁envy	-12.5134
▁marx	-12.5136
▁standardization	-12.5137
walk	-12.5138
▁plantation	-12.5138
▁equip	-12.5139
▁disagreed	-12.5141
feld	-12.5144
▁stretching	-12.5144
screen	-12.5145
▁logically	-12.5145
▁residue	-12.5148
▁tempted	-12.5148
▁sever	-12.5148
▁nat	-12.5152
▁rebecca	-12.5155
hag	-12.5156
▁incremental	-12.5156
▁hinge	-12.5157
▁sized	-12.5162
iki	-12.5164
▁steadily	-12.5169
▁conformity	-12.517
▁flaw	-12.5171
▁respectively	-12.5174
tail	-12.5174
▁octa	-12.5175
▁rom	-12.5176
ender	-12.5178
oshi	-12.5182
▁classify	-12.5183
▁plasma	-12.5185
▁earmark	-12.5186
▁perpendicular	-12.519
▁sigh	-12.519
▁ranked	-12.5192
▁empowering	-12.5202
▁tesla	-12.5202
▁elegant	-12.5204
▁happier	-12.5204
▁narcotic	-12.5204
▁troika	-12.5204
▁router	-12.5205
▁dreaming	-12.5207
▁mama	-12.5207
▁artifacts	-12.5209
▁constrained	-12.5209
▁benefiting	-12.521
gling	-12.521
▁grandparents	-12.5211
▁transplant	-12.5211
▁await	-12.5211
▁subordinate	-12.5211
▁cubic	-12.5213
▁startups	-12.5214
▁commercially	-12.5215
▁armies	-12.5215
▁clarifying	-12.5217
▁indifferent	-12.5218
▁warmly	-12.5219
corn	-12.5222
ition	-12.5225
▁cavalry	-12.5225
▁numerator	-12.5225
▁utilizing	-12.5225
▁firefighters	-12.5226
gli	-12.5226
▁danny	-12.5226
esh	-12.5228
▁musician	-12.5231
▁ordinarily	-12.5232
▁lauren	-12.5233
▁alternatively	-12.5235
▁susceptible	-12.5239
▁oxide	-12.5239
▁hazards	-12.524
▁risen	-12.524
▁enjoyment	-12.5242
▁lust	-12.5243
▁filmed	-12.5245
▁bizarre	-12.5246
▁disrespect	-12.5246
▁calories	-12.5248
▁latvia	-12.5249
▁viral	-12.525
▁brackets	-12.5257
▁seriousness	-12.526
ifier	-12.5261
yp	-12.5263
arn	-12.5267
▁descend	-12.5267
▁relieved	-12.5269
zel	-12.5269
▁invoked	-12.5276
▁prone	-12.5278
▁istanbul	-12.5282
▁marital	-12.5282
▁foam	-12.5283
▁lenders	-12.5285
▁buddha	-12.5289
american	-12.5297
▁abnormal	-12.5297
ffe	-12.5301
beau	-12.5302
▁catastrophic	-12.5303
▁bailey	-12.5304
woman	-12.5308
vir	-12.531
▁discontinu	-12.531
▁hobby	-12.531
▁jessica	-12.531
▁cornerstone	-12.5312
▁wizard	-12.5317
▁messaging	-12.5318
▁payroll	-12.5319
▁paramount	-12.5325
▁orient	-12.5325
▁recourse	-12.5327
▁reminding	-12.5337
▁ecuador	-12.5339
▁tracing	-12.5339
▁mailing	-12.5342
▁adjusting	-12.5343
▁hud	-12.5345
▁empathy	-12.5346
▁twothirds	-12.5346
▁disguise	-12.5346
▁dialect	-12.5346
▁crux	-12.5346
▁duplication	-12.5346
▁redesign	-12.5349
▁pickup	-12.535
▁intellect	-12.5353
▁maternity	-12.5353
▁denver	-12.5353
▁puff	-12.5359
▁discriminate	-12.536
▁reciprocal	-12.536
▁capitol	-12.536
▁tapping	-12.5362
▁mull	-12.5363
▁hostage	-12.5366
▁amateur	-12.5367
atter	-12.5368
▁scoring	-12.5368
▁blink	-12.5371
tree	-12.5372
forty	-12.5372
▁chad	-12.5374
▁praised	-12.5377
pb	-12.5379
▁scriptures	-12.538
▁reciprocity	-12.5382
▁deported	-12.5382
▁coincidence	-12.5382
▁cursor	-12.5382
▁perry	-12.5389
▁concise	-12.5389
▁sullivan	-12.5389
▁lanka	-12.539
▁flora	-12.5391
▁retro	-12.5394
▁accumulation	-12.5396
▁alteration	-12.5399
uth	-12.5401
▁requisite	-12.5403
▁vulnerabilities	-12.5403
▁idol	-12.5404
▁labelling	-12.5408
asi	-12.541
▁attentive	-12.541
▁prerogative	-12.541
▁vivid	-12.5411
ota	-12.5412
boarding	-12.5413
page	-12.5413
▁devise	-12.5415
▁implicated	-12.5416
▁costa	-12.5416
▁messiah	-12.5418
▁colonies	-12.5419
▁hike	-12.542
bell	-12.5421
[...]
